{
    "257": " t",
    "258": "he",
    "259": " a",
    "260": " s",
    "261": "nd",
    "262": " w",
    "263": " the",
    "264": "ed",
    "265": " b",
    "266": " to",
    "267": " and",
    "268": " h",
    "269": " f",
    "270": "in",
    "271": " T",
    "272": " wa",
    "273": "re",
    "274": "it",
    "275": "ou",
    "276": " l",
    "277": " d",
    "278": " c",
    "279": " p",
    "280": "ay",
    "281": " m",
    "282": "er",
    "283": " was",
    "284": "om",
    "285": " The",
    "286": " he",
    "287": "is",
    "288": "ar",
    "289": " n",
    "290": "im",
    "291": "on",
    "292": " sa",
    "293": "id",
    "294": "ll",
    "295": " ha",
    "296": " g",
    "297": "at",
    "298": " S",
    "299": "ing",
    "300": "ot",
    "301": "en",
    "302": "an",
    "303": "le",
    "304": "or",
    "305": "end",
    "306": "ir",
    "307": "of",
    "308": "am",
    "309": "et",
    "310": " H",
    "311": " it",
    "312": " th",
    "313": "ig",
    "314": " They",
    "315": " in",
    "316": "il",
    "317": " pl",
    "318": " He",
    "319": " \"",
    "320": "ow",
    "321": "ver",
    "322": "ri",
    "323": "ut",
    "324": " be",
    "325": " u",
    "326": " said",
    "327": " play",
    "328": "ith",
    "329": " day",
    "330": " with",
    "331": "pp",
    "332": "On",
    "333": " y",
    "334": "oo",
    "335": "ked",
    "336": " r",
    "337": " her",
    "338": "ex",
    "339": "ce",
    "340": " I",
    "341": " She",
    "342": "ld",
    "343": " Tim",
    "344": " his",
    "345": " st",
    "346": "ke",
    "347": " big",
    "348": "nt",
    "349": "ck",
    "350": " you",
    "351": "very",
    "352": "st",
    "353": "ve",
    "354": " on",
    "355": "un",
    "356": " happ",
    "357": "riend",
    "358": " friend",
    "359": "all",
    "360": "ily",
    "361": "ext",
    "362": " L",
    "363": " they",
    "364": "oft",
    "365": " we",
    "366": " had",
    "367": " not",
    "368": " li",
    "369": " up",
    "370": "her",
    "371": " want",
    "372": " of",
    "373": "ad",
    "374": "itt",
    "375": "|>",
    "376": "<|",
    "377": "oftext",
    "378": "endoftext",
    "379": "se",
    "380": " B",
    "381": " do",
    "382": " e",
    "383": " happy",
    "384": "ent",
    "385": " very",
    "386": " M",
    "387": "es",
    "388": " that",
    "389": " saw",
    "390": "One",
    "391": "'s",
    "392": "ould",
    "393": " mom",
    "394": " for",
    "395": " sh",
    "396": "ittle",
    "397": " little",
    "398": " she",
    "399": "ch",
    "400": "ime",
    "401": " nam",
    "402": ".\"",
    "403": " time",
    "404": " k",
    "405": "ound",
    "406": " so",
    "407": " there",
    "408": " named",
    "409": " sm",
    "410": " bo",
    "411": " were",
    "412": " Lily",
    "413": " ne",
    "414": " wanted",
    "415": " but",
    "416": "out",
    "417": "The",
    "418": " friends",
    "419": "ved",
    "420": "!\"",
    "421": "ht",
    "422": " Tom",
    "423": "ird",
    "424": "el",
    "425": " bird",
    "426": "al",
    "427": " an",
    "428": "ake",
    "429": " too",
    "430": "ome",
    "431": " It",
    "432": "ug",
    "433": "ide",
    "434": " went",
    "435": " wh",
    "436": " hel",
    "437": "Once",
    "438": " is",
    "439": " all",
    "440": " help",
    "441": "ue",
    "442": " loo",
    "443": " lo",
    "444": "ter",
    "445": " A",
    "446": " upon",
    "447": "ry",
    "448": "ore",
    "449": "ind",
    "450": " fun",
    "451": "get",
    "452": " toy",
    "453": "ill",
    "454": "ame",
    "455": " as",
    "456": " at",
    "457": "ra",
    "458": " j",
    "459": " did",
    "460": "gether",
    "461": " re",
    "462": "ur",
    "463": " o",
    "464": " se",
    "465": " together",
    "466": "ack",
    "467": " cat",
    "468": "ly",
    "469": " tre",
    "470": "ood",
    "471": "ic",
    "472": "ted",
    "473": " dog",
    "474": " could",
    "475": " can",
    "476": " their",
    "477": "ard",
    "478": "ec",
    "479": "ark",
    "480": " gir",
    "481": " played",
    "482": " him",
    "483": " ball",
    "484": "?\"",
    "485": " girl",
    "486": " ro",
    "487": "way",
    "488": " go",
    "489": "hed",
    "490": "my",
    "491": " are",
    "492": " out",
    "493": " le",
    "494": " fr",
    "495": "ain",
    "496": " kn",
    "497": "hen",
    "498": " them",
    "499": "um",
    "500": "'t",
    "501": "ax",
    "502": " sad",
    "503": "ul",
    "504": " boy",
    "505": " tree",
    "506": "other",
    "507": " have",
    "508": " man",
    "509": " cl",
    "510": " loved",
    "511": " looked",
    "512": "oug",
    "513": " found",
    "514": " sp",
    "515": " star",
    "516": " Sue",
    "517": "one",
    "518": "hing",
    "519": " sc",
    "520": " back",
    "521": "own",
    "522": " Max",
    "523": "are",
    "524": " like",
    "525": "ful",
    "526": "side",
    "527": " me",
    "528": " bec",
    "529": " park",
    "530": "ight",
    "531": "ong",
    "532": " car",
    "533": "op",
    "534": "elt",
    "535": " One",
    "536": " liked",
    "537": " would",
    "538": " make",
    "539": "round",
    "540": " la",
    "541": " fa",
    "542": " felt",
    "543": "You",
    "544": " W",
    "545": "ell",
    "546": " see",
    "547": " But",
    "548": "omet",
    "549": " asked",
    "550": "ag",
    "551": " new",
    "552": " no",
    "553": "ice",
    "554": " Sam",
    "555": "ouse",
    "556": " started",
    "557": "ared",
    "558": " came",
    "559": " Ben",
    "560": " al",
    "561": " other",
    "562": "ought",
    "563": "iled",
    "564": " somet",
    "565": " ag",
    "566": " good",
    "567": " small",
    "568": "ss",
    "569": " br",
    "570": " smiled",
    "571": " say",
    "572": "ried",
    "573": "ade",
    "574": "ings",
    "575": "ob",
    "576": "pot",
    "577": " wor",
    "578": " find",
    "579": "ia",
    "580": " away",
    "581": "ty",
    "582": " put",
    "583": " ex",
    "584": " what",
    "585": " something",
    "586": " from",
    "587": " made",
    "588": " thought",
    "589": "ened",
    "590": " home",
    "591": " playing",
    "592": " co",
    "593": "ook",
    "594": " every",
    "595": " wal",
    "596": " mu",
    "597": "uc",
    "598": "ach",
    "599": "arn",
    "600": " Spot",
    "601": " ran",
    "602": "ile",
    "603": " F",
    "604": "ie",
    "605": " J",
    "606": "ave",
    "607": " again",
    "608": " some",
    "609": " laug",
    "610": "dd",
    "611": " house",
    "612": " down",
    "613": " fl",
    "614": "king",
    "615": " took",
    "616": " scared",
    "617": " pr",
    "618": "ny",
    "619": "ure",
    "620": " toys",
    "621": " learn",
    "622": " You",
    "623": "if",
    "624": " will",
    "625": " box",
    "626": "ick",
    "627": "ret",
    "628": "ab",
    "629": "ep",
    "630": " my",
    "631": " around",
    "632": " things",
    "633": " your",
    "634": "oud",
    "635": " bl",
    "636": "uck",
    "637": " when",
    "638": "ish",
    "639": " lived",
    "640": " fe",
    "641": " then",
    "642": " sun",
    "643": "as",
    "644": " sw",
    "645": ",\"",
    "646": " ch",
    "647": "us",
    "648": "pped",
    "649": " ab",
    "650": " Mia",
    "651": "ank",
    "652": " get",
    "653": "ucy",
    "654": "Tim",
    "655": "ump",
    "656": "Th",
    "657": " lot",
    "658": "ist",
    "659": "oth",
    "660": " tried",
    "661": "ap",
    "662": " know",
    "663": " says",
    "664": " got",
    "665": "ited",
    "666": " who",
    "667": " kne",
    "668": "ust",
    "669": " many",
    "670": "nder",
    "671": " int",
    "672": " about",
    "673": "Lily",
    "674": " pret",
    "675": " dec",
    "676": " any",
    "677": " red",
    "678": " D",
    "679": "ive",
    "680": " knew",
    "681": "ace",
    "682": "ous",
    "683": " more",
    "684": "ise",
    "685": " v",
    "686": " care",
    "687": "ally",
    "688": " pic",
    "689": "au",
    "690": "qu",
    "691": " hug",
    "692": " Lucy",
    "693": " learned",
    "694": " po",
    "695": " water",
    "696": "fter",
    "697": " became",
    "698": " best",
    "699": "ause",
    "700": " op",
    "701": " gre",
    "702": " exc",
    "703": "urp",
    "704": "ways",
    "705": "\ufffd",
    "706": " outside",
    "707": " laughed",
    "708": " look",
    "709": " always",
    "710": " decid",
    "711": " show",
    "712": " un",
    "713": "ant",
    "714": " Bob",
    "715": " room",
    "716": "fe",
    "717": " decided",
    "718": " ho",
    "719": " because",
    "720": " into",
    "721": " So",
    "722": " eat",
    "723": "ite",
    "724": " jump",
    "725": " And",
    "726": " pe",
    "727": " both",
    "728": "ers",
    "729": " Mom",
    "730": " dad",
    "731": "They",
    "732": "udd",
    "733": " ke",
    "734": " one",
    "735": "nn",
    "736": " this",
    "737": " excited",
    "738": " fast",
    "739": " nice",
    "740": " E",
    "741": " feel",
    "742": "Tom",
    "743": "Yes",
    "744": " run",
    "745": " long",
    "746": " told",
    "747": " sk",
    "748": " am",
    "749": "urpr",
    "750": "our",
    "751": " inside",
    "752": "ull",
    "753": " tr",
    "754": " surpr",
    "755": " mo",
    "756": "ink",
    "757": " pretty",
    "758": "iny",
    "759": " sor",
    "760": "Wh",
    "761": " take",
    "762": "og",
    "763": " sl",
    "764": " each",
    "765": " gave",
    "766": " much",
    "767": " gra",
    "768": "lew",
    "769": "nna",
    "770": " rock",
    "771": " how",
    "772": " str",
    "773": "ara",
    "774": "imal",
    "775": " animal",
    "776": "ged",
    "777": " need",
    "778": " than",
    "779": "But",
    "780": "ven",
    "781": "etter",
    "782": " tow",
    "783": " or",
    "784": " C",
    "785": " under",
    "786": "ess",
    "787": " old",
    "788": " sorry",
    "789": "ge",
    "790": "ised",
    "791": "ro",
    "792": "urt",
    "793": " cle",
    "794": " fish",
    "795": " walked",
    "796": " clo",
    "797": "and",
    "798": " bear",
    "799": "ase",
    "800": "ast",
    "801": " hand",
    "802": "urn",
    "803": " We",
    "804": " kind",
    "805": " His",
    "806": "here",
    "807": " happened",
    "808": " just",
    "809": " flow",
    "810": " food",
    "811": " list",
    "812": " didn",
    "813": " te",
    "814": " animals",
    "815": " hig",
    "816": "pl",
    "817": " near",
    "818": " wat",
    "819": " ide",
    "820": " try",
    "821": "ched",
    "822": " sky",
    "823": "ine",
    "824": " sn",
    "825": "ving",
    "826": " fi",
    "827": "rom",
    "828": " us",
    "829": " idea",
    "830": " better",
    "831": " Amy",
    "832": " bug",
    "833": " heard",
    "834": "gry",
    "835": " its",
    "836": " tw",
    "837": " let",
    "838": "pec",
    "839": "ate",
    "840": "able",
    "841": "ff",
    "842": " en",
    "843": " careful",
    "844": " share",
    "845": " if",
    "846": "Thank",
    "847": "Mom",
    "848": " fly",
    "849": " stor",
    "850": "ial",
    "851": " flew",
    "852": "more",
    "853": " anymore",
    "854": " Th",
    "855": " spec",
    "856": " special",
    "857": "ion",
    "858": " com",
    "859": " lots",
    "860": " never",
    "861": " by",
    "862": "lf",
    "863": "ream",
    "864": " dan",
    "865": " bu",
    "866": " fo",
    "867": " wind",
    "868": " don",
    "869": " tal",
    "870": " clean",
    "871": "ort",
    "872": " gr",
    "873": " love",
    "874": "rm",
    "875": "ber",
    "876": " end",
    "877": " Then",
    "878": "ople",
    "879": " even",
    "880": "\n\n",
    "881": " mag",
    "882": " hard",
    "883": " shiny",
    "884": "udden",
    "885": " fore",
    "886": " over",
    "887": " cake",
    "888": "ak",
    "889": " book",
    "890": " col",
    "891": " turn",
    "892": " fam",
    "893": " bad",
    "894": " safe",
    "895": " after",
    "896": "ady",
    "897": " Anna",
    "898": "uddenly",
    "899": " people",
    "900": " proud",
    "901": " Every",
    "902": " surprised",
    "903": "pected",
    "904": "Let",
    "905": " high",
    "906": " cu",
    "907": " hurt",
    "908": " come",
    "909": "imb",
    "910": "arden",
    "911": " door",
    "912": " garden",
    "913": "bb",
    "914": " ground",
    "915": " opened",
    "916": " picked",
    "917": " loud",
    "918": " climb",
    "919": "expected",
    "920": " unexpected",
    "921": " gl",
    "922": " che",
    "923": "ild",
    "924": " im",
    "925": "As",
    "926": " give",
    "927": " way",
    "928": "ail",
    "929": "'m",
    "930": " thanked",
    "931": " color",
    "932": " blue",
    "933": " still",
    "934": " ever",
    "935": " hugged",
    "936": " From",
    "937": " call",
    "938": " far",
    "939": "ip",
    "940": " Her",
    "941": " Sara",
    "942": " When",
    "943": "No",
    "944": " off",
    "945": " magic",
    "946": "iz",
    "947": "ough",
    "948": "age",
    "949": "ummy",
    "950": " K",
    "951": " jumped",
    "952": " should",
    "953": " family",
    "954": " par",
    "955": "ool",
    "956": " kid",
    "957": " smile",
    "958": "hes",
    "959": "uff",
    "960": " place",
    "961": "kay",
    "962": " walk",
    "963": " now",
    "964": "ct",
    "965": " In",
    "966": " great",
    "967": "em",
    "968": " qu",
    "969": "les",
    "970": " strong",
    "971": " stay",
    "972": " unt",
    "973": " sto",
    "974": "aut",
    "975": " forest",
    "976": "ture",
    "977": "ane",
    "978": " bra",
    "979": "itty",
    "980": " P",
    "981": " frog",
    "982": " bro",
    "983": " until",
    "984": "oon",
    "985": " beaut",
    "986": "dy",
    "987": " squ",
    "988": " stick",
    "989": " next",
    "990": " boat",
    "991": "lease",
    "992": "ning",
    "993": " happily",
    "994": " listen",
    "995": "aking",
    "996": " kids",
    "997": " tra",
    "998": "ies",
    "999": "iful",
    "1000": " beautiful",
    "1001": " app",
    "1002": "th",
    "1003": " helped",
    "1004": " dra",
    "1005": " showed",
    "1006": " clos",
    "1007": "be",
    "1008": " imp",
    "1009": " story",
    "1010": "unny",
    "1011": "oy",
    "1012": " while",
    "1013": " town",
    "1014": "rel",
    "1015": "pt",
    "1016": " rain",
    "1017": "ress",
    "1018": " picture",
    "1019": " being",
    "1020": " rem",
    "1021": " everyone",
    "1022": "It",
    "1023": "ary",
    "1024": "ree",
    "1025": " mor",
    "1026": " hat",
    "1027": " called",
    "1028": " met",
    "1029": " stopped",
    "1030": " ad",
    "1031": " game",
    "1032": "Now",
    "1033": "He",
    "1034": " wo",
    "1035": "Can",
    "1036": " angry",
    "1037": "ger",
    "1038": "uffy",
    "1039": " soft",
    "1040": " open",
    "1041": " truck",
    "1042": " keep",
    "1043": "When",
    "1044": " cry",
    "1045": " yummy",
    "1046": " lost",
    "1047": " bed",
    "1048": " Let",
    "1049": " Sally",
    "1050": " warm",
    "1051": "by",
    "1052": "vent",
    "1053": " brave",
    "1054": " mouse",
    "1055": " Wh",
    "1056": " ate",
    "1057": " Kitty",
    "1058": "ished",
    "1059": " de",
    "1060": "fore",
    "1061": " doll",
    "1062": "so",
    "1063": " couldn",
    "1064": " watch",
    "1065": " leave",
    "1066": " also",
    "1067": "dded",
    "1068": " fell",
    "1069": " green",
    "1070": " face",
    "1071": " two",
    "1072": "gan",
    "1073": "iss",
    "1074": " flowers",
    "1075": "bit",
    "1076": "What",
    "1077": " R",
    "1078": "ble",
    "1079": " noise",
    "1080": "abbit",
    "1081": "irst",
    "1082": "owl",
    "1083": " where",
    "1084": "az",
    "1085": "ock",
    "1086": " soon",
    "1087": "self",
    "1088": " slide",
    "1089": " rabbit",
    "1090": " hole",
    "1091": "luffy",
    "1092": " before",
    "1093": "irrel",
    "1094": " pus",
    "1095": "ired",
    "1096": " sat",
    "1097": "illy",
    "1098": " hear",
    "1099": " use",
    "1100": "\u201d",
    "1101": "Hi",
    "1102": " pa",
    "1103": " kept",
    "1104": "\u201c",
    "1105": "That",
    "1106": " squirrel",
    "1107": "ear",
    "1108": "Then",
    "1109": "ma",
    "1110": " nodded",
    "1111": " expl",
    "1112": " store",
    "1113": " cook",
    "1114": " hands",
    "1115": "Look",
    "1116": " birds",
    "1117": " pain",
    "1118": " going",
    "1119": " funny",
    "1120": " having",
    "1121": "day",
    "1122": " sing",
    "1123": "aybe",
    "1124": "uch",
    "1125": " ey",
    "1126": "aug",
    "1127": " catch",
    "1128": "aught",
    "1129": " Can",
    "1130": " Fluffy",
    "1131": "uit",
    "1132": " yell",
    "1133": " think",
    "1134": "leep",
    "1135": " cra",
    "1136": " fin",
    "1137": "Ben",
    "1138": " bre",
    "1139": " fix",
    "1140": " tired",
    "1141": " bunny",
    "1142": " used",
    "1143": " looking",
    "1144": " bus",
    "1145": "ange",
    "1146": "air",
    "1147": " work",
    "1148": " wr",
    "1149": "ting",
    "1150": " our",
    "1151": " pull",
    "1152": "We",
    "1153": " thr",
    "1154": "thing",
    "1155": " Now",
    "1156": " wait",
    "1157": " kit",
    "1158": " sound",
    "1159": " jo",
    "1160": " has",
    "1161": " G",
    "1162": " mean",
    "1163": " pond",
    "1164": "ember",
    "1165": " beh",
    "1166": " dr",
    "1167": " sunny",
    "1168": "led",
    "1169": " others",
    "1170": " ask",
    "1171": "ng",
    "1172": "chen",
    "1173": " kitchen",
    "1174": " talk",
    "1175": " flo",
    "1176": " dif",
    "1177": "rew",
    "1178": " pie",
    "1179": " Jo",
    "1180": " head",
    "1181": " real",
    "1182": " first",
    "1183": " tri",
    "1184": " mommy",
    "1185": " eyes",
    "1186": "ello",
    "1187": " import",
    "1188": "Hello",
    "1189": " fav",
    "1190": "ath",
    "1191": "joy",
    "1192": " z",
    "1193": " remember",
    "1194": " right",
    "1195": " flower",
    "1196": " con",
    "1197": " mess",
    "1198": " party",
    "1199": " cold",
    "1200": " Do",
    "1201": " vo",
    "1202": " swe",
    "1203": "ious",
    "1204": "ft",
    "1205": " sand",
    "1206": " \u201c",
    "1207": "ac",
    "1208": "orn",
    "1209": " race",
    "1210": " curi",
    "1211": "imes",
    "1212": " important",
    "1213": " duck",
    "1214": " moral",
    "1215": " shared",
    "1216": "zy",
    "1217": "ount",
    "1218": " Jack",
    "1219": " ice",
    "1220": " okay",
    "1221": " advent",
    "1222": " worked",
    "1223": "llow",
    "1224": "At",
    "1225": " enjoy",
    "1226": " dress",
    "1227": " bright",
    "1228": " making",
    "1229": " curious",
    "1230": " own",
    "1231": " tall",
    "1232": " dir",
    "1233": " hop",
    "1234": "reed",
    "1235": " hid",
    "1236": " favor",
    "1237": " ri",
    "1238": "hn",
    "1239": " sleep",
    "1240": " dis",
    "1241": "Wow",
    "1242": " favorite",
    "1243": " thing",
    "1244": " began",
    "1245": " mon",
    "1246": " bag",
    "1247": " hill",
    "1248": "Don",
    "1249": " cla",
    "1250": " draw",
    "1251": " rest",
    "1252": " here",
    "1253": " yard",
    "1254": " tell",
    "1255": " Fin",
    "1256": "ster",
    "1257": " watched",
    "1258": "que",
    "1259": " follow",
    "1260": " move",
    "1261": " bel",
    "1262": "ect",
    "1263": " cut",
    "1264": " night",
    "1265": " agreed",
    "1266": " pick",
    "1267": "co",
    "1268": " block",
    "1269": " hun",
    "1270": "aper",
    "1271": "lly",
    "1272": " stop",
    "1273": " behind",
    "1274": " This",
    "1275": " surprise",
    "1276": "ied",
    "1277": " sho",
    "1278": " hot",
    "1279": "After",
    "1280": " table",
    "1281": " grass",
    "1282": " worry",
    "1283": " dark",
    "1284": " trees",
    "1285": " voice",
    "1286": " walking",
    "1287": "fere",
    "1288": " floor",
    "1289": " farm",
    "1290": " lion",
    "1291": " top",
    "1292": " differe",
    "1293": " please",
    "1294": " ru",
    "1295": " song",
    "1296": " butter",
    "1297": " tail",
    "1298": " sweet",
    "1299": "Max",
    "1300": " shout",
    "1301": " colors",
    "1302": " read",
    "1303": " Dad",
    "1304": " lady",
    "1305": " forg",
    "1306": "isy",
    "1307": " leaves",
    "1308": " closer",
    "1309": "ign",
    "1310": " cars",
    "1311": " turned",
    "1312": " needed",
    "1313": " tast",
    "1314": "Why",
    "1315": "aring",
    "1316": " wood",
    "1317": " cried",
    "1318": " different",
    "1319": " laugh",
    "1320": " del",
    "1321": " piece",
    "1322": "\u2019",
    "1323": "ered",
    "1324": " Mr",
    "1325": " roll",
    "1326": " adventure",
    "1327": " fire",
    "1328": " does",
    "1329": "ike",
    "1330": " cr",
    "1331": " hungry",
    "1332": " hair",
    "1333": " Suddenly",
    "1334": " paper",
    "1335": " feeling",
    "1336": " yellow",
    "1337": " full",
    "1338": "bo",
    "1339": " prin",
    "1340": "Sue",
    "1341": " touch",
    "1342": " As",
    "1343": "Anna",
    "1344": "Sam",
    "1345": " wet",
    "1346": " friendly",
    "1347": " per",
    "1348": "oom",
    "1349": "ken",
    "1350": "cked",
    "1351": "ached",
    "1352": " swing",
    "1353": " fruit",
    "1354": "ient",
    "1355": " broken",
    "1356": " ready",
    "1357": "bye",
    "1358": "ppy",
    "1359": " prom",
    "1360": " That",
    "1361": " another",
    "1362": " light",
    "1363": " pretend",
    "1364": " dance",
    "1365": "ater",
    "1366": " climbed",
    "1367": "where",
    "1368": " listened",
    "1369": " Bobo",
    "1370": " danc",
    "1371": " running",
    "1372": " only",
    "1373": " plan",
    "1374": " gone",
    "1375": " swim",
    "1376": "bbed",
    "1377": "Suddenly",
    "1378": "sh",
    "1379": " train",
    "1380": "ila",
    "1381": "ndma",
    "1382": "Sara",
    "1383": " Jane",
    "1384": " close",
    "1385": "av",
    "1386": "She",
    "1387": " smell",
    "1388": "aby",
    "1389": " amaz",
    "1390": "So",
    "1391": " hold",
    "1392": " blocks",
    "1393": " wonder",
    "1394": " Timmy",
    "1395": " repl",
    "1396": " All",
    "1397": " butterf",
    "1398": " sees",
    "1399": " reached",
    "1400": " wall",
    "1401": " pu",
    "1402": "oney",
    "1403": "red",
    "1404": " slow",
    "1405": " helping",
    "1406": " dri",
    "1407": " cream",
    "1408": " cool",
    "1409": " glad",
    "1410": "af",
    "1411": " ant",
    "1412": " less",
    "1413": " been",
    "1414": " goodbye",
    "1415": " ac",
    "1416": " fight",
    "1417": "ather",
    "1418": "Mia",
    "1419": " pushed",
    "1420": "iced",
    "1421": " fair",
    "1422": " must",
    "1423": " hide",
    "1424": " moment",
    "1425": " window",
    "1426": " O",
    "1427": " sit",
    "1428": " balloon",
    "1429": " snow",
    "1430": " child",
    "1431": " explore",
    "1432": " Everyone",
    "1433": " ar",
    "1434": " wished",
    "1435": " baby",
    "1436": " done",
    "1437": " wag",
    "1438": " ste",
    "1439": " buy",
    "1440": " stuck",
    "1441": " perf",
    "1442": " thank",
    "1443": " might",
    "1444": "icy",
    "1445": " name",
    "1446": "ized",
    "1447": " trying",
    "1448": " bit",
    "1449": " coming",
    "1450": " bar",
    "1451": " quick",
    "1452": " fall",
    "1453": " apple",
    "1454": "ash",
    "1455": " scary",
    "1456": " looks",
    "1457": " build",
    "1458": " doing",
    "1459": " win",
    "1460": " underst",
    "1461": "aisy",
    "1462": " din",
    "1463": " dream",
    "1464": " dirty",
    "1465": " held",
    "1466": "ames",
    "1467": " books",
    "1468": " mar",
    "1469": "In",
    "1470": " butterfly",
    "1471": " left",
    "1472": " shouted",
    "1473": " count",
    "1474": " replied",
    "1475": "avy",
    "1476": " reach",
    "1477": " tiny",
    "1478": " through",
    "1479": "ott",
    "1480": " dro",
    "1481": " why",
    "1482": " air",
    "1483": " bran",
    "1484": " land",
    "1485": "key",
    "1486": " three",
    "1487": " pulled",
    "1488": " spl",
    "1489": " grow",
    "1490": " treat",
    "1491": " brother",
    "1492": " wise",
    "1493": " woods",
    "1494": " sure",
    "1495": "'re",
    "1496": " chair",
    "1497": "ix",
    "1498": " mat",
    "1499": "ins",
    "1500": " seen",
    "1501": " pink",
    "1502": " clapped",
    "1503": " plant",
    "1504": "ely",
    "1505": " owl",
    "1506": " cup",
    "1507": "ield",
    "1508": " sometimes",
    "1509": "andy",
    "1510": " fill",
    "1511": " cloud",
    "1512": "ask",
    "1513": " swam",
    "1514": "outh",
    "1515": " job",
    "1516": " colorful",
    "1517": " remembered",
    "1518": " bigger",
    "1519": " nest",
    "1520": " mouth",
    "1521": "pe",
    "1522": "Okay",
    "1523": " lesson",
    "1524": " join",
    "1525": " cre",
    "1526": "ph",
    "1527": " There",
    "1528": "oup",
    "1529": "room",
    "1530": "art",
    "1531": " waved",
    "1532": "uddy",
    "1533": " grabbed",
    "1534": " stayed",
    "1535": "Oh",
    "1536": " paint",
    "1537": "This",
    "1538": " clot",
    "1539": " cont",
    "1540": " clothes",
    "1541": "ower",
    "1542": " After",
    "1543": " waited",
    "1544": " quickly",
    "1545": "cle",
    "1546": " word",
    "1547": " broke",
    "1548": "ucky",
    "1549": " games",
    "1550": " cast",
    "1551": " blew",
    "1552": " gent",
    "1553": " Mommy",
    "1554": " enjoyed",
    "1555": " noticed",
    "1556": "Jo",
    "1557": "ries",
    "1558": "ation",
    "1559": " set",
    "1560": " likes",
    "1561": " pictures",
    "1562": "ton",
    "1563": "de",
    "1564": " sea",
    "1565": " heavy",
    "1566": " mus",
    "1567": " alone",
    "1568": " gif",
    "1569": "asure",
    "1570": " anything",
    "1571": " spot",
    "1572": " miss",
    "1573": " hopped",
    "1574": " world",
    "1575": " turns",
    "1576": "orm",
    "1577": " year",
    "1578": "der",
    "1579": " bott",
    "1580": " pat",
    "1581": " pot",
    "1582": " pen",
    "1583": "lc",
    "1584": "Her",
    "1585": " mix",
    "1586": " arm",
    "1587": " bike",
    "1588": " tight",
    "1589": " everywhere",
    "1590": " won",
    "1591": "Lucy",
    "1592": " tower",
    "1593": " threw",
    "1594": " himself",
    "1595": " followed",
    "1596": " Buddy",
    "1597": " ride",
    "1598": "man",
    "1599": "less",
    "1600": " ju",
    "1601": " je",
    "1602": "amp",
    "1603": "Bob",
    "1604": "ape",
    "1605": " comp",
    "1606": " key",
    "1607": "row",
    "1608": "\".",
    "1609": " white",
    "1610": "ctor",
    "1611": " wrong",
    "1612": " Daisy",
    "1613": " makes",
    "1614": " What",
    "1615": " break",
    "1616": " black",
    "1617": "arent",
    "1618": "ee",
    "1619": "ner",
    "1620": "Spot",
    "1621": "Do",
    "1622": " deep",
    "1623": "thy",
    "1624": " music",
    "1625": " pol",
    "1626": " delic",
    "1627": "cess",
    "1628": "ued",
    "1629": " forgot",
    "1630": " bee",
    "1631": " parent",
    "1632": " castle",
    "1633": "ves",
    "1634": "olly",
    "1635": " em",
    "1636": "iet",
    "1637": " wear",
    "1638": " hit",
    "1639": " ve",
    "1640": "ister",
    "1641": "oun",
    "1642": " quiet",
    "1643": " round",
    "1644": "ance",
    "1645": " stu",
    "1646": " danced",
    "1647": " vis",
    "1648": "ully",
    "1649": " wants",
    "1650": " leaf",
    "1651": " monster",
    "1652": " nap",
    "1653": " John",
    "1654": " understand",
    "1655": "ang",
    "1656": " bowl",
    "1657": "os",
    "1658": "rot",
    "1659": "ren",
    "1660": " bor",
    "1661": " talked",
    "1662": "itten",
    "1663": " dry",
    "1664": " faster",
    "1665": " cookies",
    "1666": " brought",
    "1667": "fully",
    "1668": " leg",
    "1669": "ross",
    "1670": " mum",
    "1671": "zz",
    "1672": " side",
    "1673": "ts",
    "1674": "From",
    "1675": " sign",
    "1676": " Inside",
    "1677": " smart",
    "1678": "cy",
    "1679": " rocks",
    "1680": " someone",
    "1681": "His",
    "1682": " poin",
    "1683": " sec",
    "1684": " sharing",
    "1685": " fox",
    "1686": " well",
    "1687": " res",
    "1688": " rel",
    "1689": " happen",
    "1690": " button",
    "1691": " branch",
    "1692": " Lila",
    "1693": " really",
    "1694": " finished",
    "1695": "ence",
    "1696": "ards",
    "1697": " dinner",
    "1698": " sister",
    "1699": " flying",
    "1700": "eddy",
    "1701": " contin",
    "1702": " worried",
    "1703": " ele",
    "1704": " To",
    "1705": " visit",
    "1706": " Maybe",
    "1707": " beach",
    "1708": " que",
    "1709": " secret",
    "1710": " el",
    "1711": " Sarah",
    "1712": " king",
    "1713": "John",
    "1714": "gy",
    "1715": " today",
    "1716": " perfect",
    "1717": " river",
    "1718": " everything",
    "1719": " silly",
    "1720": " shin",
    "1721": " Joe",
    "1722": " danger",
    "1723": "ipp",
    "1724": " children",
    "1725": " gu",
    "1726": " Soon",
    "1727": " field",
    "1728": " filled",
    "1729": " fur",
    "1730": " else",
    "1731": " smiles",
    "1732": " welc",
    "1733": " At",
    "1734": " wish",
    "1735": " Em",
    "1736": "While",
    "1737": " sang",
    "1738": " gi",
    "1739": "ze",
    "1740": " pudd",
    "1741": " snack",
    "1742": " eating",
    "1743": " realized",
    "1744": " pieces",
    "1745": " promised",
    "1746": "ord",
    "1747": " spr",
    "1748": " pig",
    "1749": " free",
    "1750": " continued",
    "1751": " bite",
    "1752": "ead",
    "1753": " parents",
    "1754": " carefully",
    "1755": "ated",
    "1756": "itting",
    "1757": " ear",
    "1758": "Just",
    "1759": " jar",
    "1760": "Maybe",
    "1761": " cow",
    "1762": "Amy",
    "1763": " blank",
    "1764": " drag",
    "1765": "stead",
    "1766": " orange",
    "1767": " mud",
    "1768": " crying",
    "1769": " blanket",
    "1770": " enough",
    "1771": " rolled",
    "1772": "cket",
    "1773": " soup",
    "1774": " sail",
    "1775": " purp",
    "1776": "imi",
    "1777": " yes",
    "1778": "ale",
    "1779": " drink",
    "1780": " snake",
    "1781": "ses",
    "1782": " boun",
    "1783": " pet",
    "1784": " crab",
    "1785": " throw",
    "1786": " laughing",
    "1787": " fairy",
    "1788": " words",
    "1789": " amazing",
    "1790": " bath",
    "1791": "ich",
    "1792": " purple",
    "1793": " Z",
    "1794": " without",
    "1795": "ire",
    "1796": " bottle",
    "1797": " Billy",
    "1798": " gift",
    "1799": " grandma",
    "1800": "Fin",
    "1801": "used",
    "1802": "ons",
    "1803": " past",
    "1804": " money",
    "1805": "iver",
    "1806": "fort",
    "1807": " mail",
    "1808": " Gra",
    "1809": " barked",
    "1810": " wagged",
    "1811": " att",
    "1812": "chool",
    "1813": " monkey",
    "1814": " doctor",
    "1815": "unch",
    "1816": " brown",
    "1817": " moved",
    "1818": "ises",
    "1819": " asks",
    "1820": " getting",
    "1821": " closed",
    "1822": " whe",
    "1823": " welcome",
    "1824": " su",
    "1825": " candy",
    "1826": " school",
    "1827": " morning",
    "1828": " owner",
    "1829": "gg",
    "1830": " lon",
    "1831": " mother",
    "1832": " higher",
    "1833": " sitting",
    "1834": " treasure",
    "1835": ".\u201d",
    "1836": " smo",
    "1837": "!\u201d",
    "1838": " dangerous",
    "1839": " lonely",
    "1840": " Ch",
    "1841": " living",
    "1842": " apples",
    "1843": "ush",
    "1844": " shop",
    "1845": "ased",
    "1846": " strange",
    "1847": "vel",
    "1848": " shining",
    "1849": " road",
    "1850": "ere",
    "1851": " Tommy",
    "1852": " creat",
    "1853": "una",
    "1854": " paw",
    "1855": "ey",
    "1856": " ra",
    "1857": " shoes",
    "1858": " pre",
    "1859": "ible",
    "1860": " -",
    "1861": " stre",
    "1862": " talking",
    "1863": "althy",
    "1864": " caught",
    "1865": " egg",
    "1866": "ol",
    "1867": " pass",
    "1868": "me",
    "1869": " lake",
    "1870": " runs",
    "1871": " buck",
    "1872": " letter",
    "1873": " wings",
    "1874": " chee",
    "1875": "fish",
    "1876": " mad",
    "1877": " fan",
    "1878": "asket",
    "1879": " basket",
    "1880": "ass",
    "1881": " dragon",
    "1882": "app",
    "1883": "Mommy",
    "1884": "set",
    "1885": "cks",
    "1886": " stone",
    "1887": " thinks",
    "1888": " stand",
    "1889": " delicious",
    "1890": " nose",
    "1891": " puddle",
    "1892": " tom",
    "1893": " Bl",
    "1894": " Mimi",
    "1895": " belie",
    "1896": " farmer",
    "1897": " same",
    "1898": " years",
    "1899": "board",
    "1900": " teddy",
    "1901": " bat",
    "1902": "isk",
    "1903": "itch",
    "1904": " mine",
    "1905": " sear",
    "1906": " coat",
    "1907": "ches",
    "1908": "igh",
    "1909": " days",
    "1910": " bring",
    "1911": " gentle",
    "1912": " fit",
    "1913": " start",
    "1914": " finally",
    "1915": " whist",
    "1916": " cray",
    "1917": "igg",
    "1918": " scream",
    "1919": " kite",
    "1920": " pill",
    "1921": "phant",
    "1922": "arm",
    "1923": " vill",
    "1924": " cho",
    "1925": " singing",
    "1926": "ella",
    "1927": "sw",
    "1928": "ined",
    "1929": " tasty",
    "1930": " ph",
    "1931": " ben",
    "1932": " trou",
    "1933": " shell",
    "1934": " herself",
    "1935": " hoped",
    "1936": " answ",
    "1937": " wore",
    "1938": " swings",
    "1939": "sy",
    "1940": " hor",
    "1941": " belong",
    "1942": "Please",
    "1943": " push",
    "1944": " bush",
    "1945": "iskers",
    "1946": " carrot",
    "1947": " arri",
    "1948": "aughty",
    "1949": " teach",
    "1950": "bow",
    "1951": "ract",
    "1952": " naughty",
    "1953": " elephant",
    "1954": " dropped",
    "1955": " shap",
    "1956": "ier",
    "1957": " coll",
    "1958": "sc",
    "1959": " teac",
    "1960": "emy",
    "1961": " woke",
    "1962": "ball",
    "1963": " pile",
    "1964": " hiding",
    "1965": " cour",
    "1966": "isa",
    "1967": "erry",
    "1968": " touc",
    "1969": " min",
    "1970": " puppy",
    "1971": "'ll",
    "1972": " seem",
    "1973": "llie",
    "1974": " twins",
    "1975": "ama",
    "1976": " lunch",
    "1977": " bow",
    "1978": " sack",
    "1979": " pers",
    "1980": " course",
    "1981": " cheered",
    "1982": " shapes",
    "1983": " Jen",
    "1984": " grew",
    "1985": "fused",
    "1986": " rope",
    "1987": " village",
    "1988": "irth",
    "1989": "irthday",
    "1990": " juice",
    "1991": "ipped",
    "1992": " rainbow",
    "1993": " spin",
    "1994": "OK",
    "1995": " shook",
    "1996": "Jack",
    "1997": " spoon",
    "1998": " bench",
    "1999": " street",
    "2000": " fence",
    "2001": " cute",
    "2002": " Fred",
    "2003": " rob",
    "2004": " nut",
    "2005": " cheese",
    "2006": " prob",
    "2007": " touched",
    "2008": "idge",
    "2009": "col",
    "2010": " joy",
    "2011": " Whiskers",
    "2012": " arrived",
    "2013": " seed",
    "2014": " war",
    "2015": " teacher",
    "2016": " corn",
    "2017": "Good",
    "2018": " forever",
    "2019": " able",
    "2020": " bell",
    "2021": " few",
    "2022": " carry",
    "2023": " most",
    "2024": " plane",
    "2025": " Blue",
    "2026": "lem",
    "2027": " eas",
    "2028": " sounds",
    "2029": "lla",
    "2030": " des",
    "2031": " spo",
    "2032": " problem",
    "2033": " birthday",
    "2034": " power",
    "2035": " inc",
    "2036": "umb",
    "2037": "br",
    "2038": "\n ",
    "2039": " bugs",
    "2040": "ilk",
    "2041": " wonderful",
    "2042": " dolls",
    "2043": " busy",
    "2044": "ato",
    "2045": "irp",
    "2046": "eb",
    "2047": " wra",
    "2048": " promise",
    "2049": " Thank",
    "2050": " feels",
    "2051": "ian",
    "2052": " Emma",
    "2053": "eter",
    "2054": " bread",
    "2055": " neck",
    "2056": "Finally",
    "2057": " milk",
    "2058": " robot",
    "2059": " rec",
    "2060": " shy",
    "2061": "ountain",
    "2062": " kiss",
    "2063": "irt",
    "2064": " heart",
    "2065": " band",
    "2066": " cave",
    "2067": " pocket",
    "2068": "ub",
    "2069": " helpful",
    "2070": "gly",
    "2071": " slowly",
    "2072": " believe",
    "2073": " shake",
    "2074": "umpy",
    "2075": "eared",
    "2076": " patient",
    "2077": " pop",
    "2078": " ob",
    "2079": "arp",
    "2080": " live",
    "2081": " storm",
    "2082": " holding",
    "2083": " ugly",
    "2084": " towards",
    "2085": " upset",
    "2086": " turt",
    "2087": " shr",
    "2088": "adow",
    "2089": " cover",
    "2090": " kitten",
    "2091": "ost",
    "2092": " Remy",
    "2093": " sharp",
    "2094": " disapp",
    "2095": " stories",
    "2096": " suc",
    "2097": " honey",
    "2098": "ove",
    "2099": " Bella",
    "2100": "read",
    "2101": " noises",
    "2102": " Le",
    "2103": " cir",
    "2104": " balls",
    "2105": " spark",
    "2106": " gray",
    "2107": " dist",
    "2108": " dirt",
    "2109": "oggy",
    "2110": " late",
    "2111": " driver",
    "2112": " seat",
    "2113": " bucket",
    "2114": " meet",
    "2115": " young",
    "2116": " amazed",
    "2117": " turtle",
    "2118": "alm",
    "2119": " spid",
    "2120": " treats",
    "2121": " magical",
    "2122": "unt",
    "2123": "ator",
    "2124": " glow",
    "2125": " seek",
    "2126": " zoom",
    "2127": " lem",
    "2128": " sandw",
    "2129": "fortable",
    "2130": "umber",
    "2131": " trip",
    "2132": " mist",
    "2133": "ourn",
    "2134": " splas",
    "2135": " mark",
    "2136": " journ",
    "2137": " fold",
    "2138": " mach",
    "2139": " puzz",
    "2140": " part",
    "2141": "ling",
    "2142": " horse",
    "2143": " organ",
    "2144": " wild",
    "2145": " princess",
    "2146": "pping",
    "2147": "oose",
    "2148": " cookie",
    "2149": "Sure",
    "2150": "ens",
    "2151": " hugs",
    "2152": " Mark",
    "2153": " taking",
    "2154": "ung",
    "2155": " wheel",
    "2156": "epend",
    "2157": " cloth",
    "2158": " Lisa",
    "2159": " sug",
    "2160": " instead",
    "2161": " bubb",
    "2162": " string",
    "2163": " net",
    "2164": " drove",
    "2165": "iling",
    "2166": " rude",
    "2167": " huge",
    "2168": " Jim",
    "2169": " coin",
    "2170": " stars",
    "2171": " fighting",
    "2172": "Be",
    "2173": " spicy",
    "2174": " lucky",
    "2175": "Of",
    "2176": " craw",
    "2177": "Hey",
    "2178": " bone",
    "2179": " inv",
    "2180": " Grandma",
    "2181": "ors",
    "2182": "not",
    "2183": " ca",
    "2184": "pper",
    "2185": " forget",
    "2186": "up",
    "2187": " di",
    "2188": "aur",
    "2189": " sal",
    "2190": " Finally",
    "2191": " cannot",
    "2192": " whistle",
    "2193": " card",
    "2194": " sick",
    "2195": " path",
    "2196": " cou",
    "2197": " spider",
    "2198": " wide",
    "2199": "Lila",
    "2200": " foot",
    "2201": " snowman",
    "2202": " songs",
    "2203": " life",
    "2204": " pillow",
    "2205": "ize",
    "2206": "ular",
    "2207": " Just",
    "2208": "Later",
    "2209": "est",
    "2210": " Ann",
    "2211": "ert",
    "2212": " fixed",
    "2213": " giant",
    "2214": "oph",
    "2215": "rill",
    "2216": " nod",
    "2217": " boss",
    "2218": " last",
    "2219": " comes",
    "2220": " joke",
    "2221": " moon",
    "2222": " taste",
    "2223": "den",
    "2224": " machine",
    "2225": " grumpy",
    "2226": " wave",
    "2227": " thin",
    "2228": " drive",
    "2229": " cart",
    "2230": " ash",
    "2231": " ser",
    "2232": " grab",
    "2233": " peace",
    "2234": "lower",
    "2235": " daddy",
    "2236": " On",
    "2237": " Leo",
    "2238": "ery",
    "2239": " sel",
    "2240": " shelf",
    "2241": " hidden",
    "2242": "erest",
    "2243": " suddenly",
    "2244": " wasn",
    "2245": " write",
    "2246": " landed",
    "2247": " confused",
    "2248": " ring",
    "2249": " change",
    "2250": " worm",
    "2251": "oop",
    "2252": " interest",
    "2253": " chased",
    "2254": " fruits",
    "2255": " sour",
    "2256": "ity",
    "2257": " myster",
    "2258": " bark",
    "2259": " rad",
    "2260": " smooth",
    "2261": " Come",
    "2262": " adventures",
    "2263": " val",
    "2264": " stepped",
    "2265": " fle",
    "2266": "ope",
    "2267": " oven",
    "2268": " takes",
    "2269": " missed",
    "2270": " selfish",
    "2271": "kin",
    "2272": " sheep",
    "2273": " messy",
    "2274": " across",
    "2275": "To",
    "2276": " ent",
    "2277": " exp",
    "2278": "to",
    "2279": " ce",
    "2280": " later",
    "2281": "elly",
    "2282": " N",
    "2283": "ife",
    "2284": " sticks",
    "2285": " tie",
    "2286": "St",
    "2287": "ever",
    "2288": " Luna",
    "2289": " step",
    "2290": " bought",
    "2291": " drew",
    "2292": " tea",
    "2293": "pect",
    "2294": " ban",
    "2295": "irpy",
    "2296": "box",
    "2297": "?\u201d",
    "2298": " wash",
    "2299": " lay",
    "2300": " pour",
    "2301": " beak",
    "2302": "ose",
    "2303": " jog",
    "2304": " grate",
    "2305": " ducks",
    "2306": " spe",
    "2307": " legs",
    "2308": "ugg",
    "2309": " fil",
    "2310": " Bu",
    "2311": " emp",
    "2312": "mer",
    "2313": " hope",
    "2314": " empty",
    "2315": " slid",
    "2316": " feather",
    "2317": " sleepy",
    "2318": " drum",
    "2319": "amed",
    "2320": "ars",
    "2321": "eth",
    "2322": " zoo",
    "2323": " pan",
    "2324": " phone",
    "2325": " grateful",
    "2326": " fing",
    "2327": "ions",
    "2328": " lemon",
    "2329": "let",
    "2330": " Cat",
    "2331": " clever",
    "2332": " Molly",
    "2333": " smelly",
    "2334": " imag",
    "2335": " splash",
    "2336": " interesting",
    "2337": " Jill",
    "2338": " save",
    "2339": " chick",
    "2340": " calm",
    "2341": " med",
    "2342": " watching",
    "2343": "Soon",
    "2344": "izzy",
    "2345": "izz",
    "2346": " plate",
    "2347": " ign",
    "2348": "yard",
    "2349": " clouds",
    "2350": " banan",
    "2351": " line",
    "2352": " faces",
    "2353": " ba",
    "2354": " act",
    "2355": " though",
    "2356": " wolf",
    "2357": " backyard",
    "2358": "wel",
    "2359": " seemed",
    "2360": " dogs",
    "2361": " spray",
    "2362": "Come",
    "2363": " prot",
    "2364": " whole",
    "2365": " mot",
    "2366": " fancy",
    "2367": " Daddy",
    "2368": " quest",
    "2369": " arms",
    "2370": " puzzle",
    "2371": " healthy",
    "2372": " supp",
    "2373": "ward",
    "2374": " finish",
    "2375": "erly",
    "2376": " along",
    "2377": "llo",
    "2378": " rocket",
    "2379": " explain",
    "2380": "dge",
    "2381": " easy",
    "2382": " jewel",
    "2383": "ont",
    "2384": " pract",
    "2385": " jelly",
    "2386": " Chirpy",
    "2387": " tid",
    "2388": " fake",
    "2389": " crayons",
    "2390": " wondered",
    "2391": " maybe",
    "2392": " scar",
    "2393": " ship",
    "2394": " nothing",
    "2395": "onest",
    "2396": " emb",
    "2397": "iger",
    "2398": " pool",
    "2399": " longer",
    "2400": " anyone",
    "2401": " Be",
    "2402": " Jerry",
    "2403": "ually",
    "2404": " front",
    "2405": " working",
    "2406": " gives",
    "2407": "irr",
    "2408": " pack",
    "2409": " such",
    "2410": " Bunny",
    "2411": "ocked",
    "2412": "ment",
    "2413": " bossy",
    "2414": " Doggy",
    "2415": " trouble",
    "2416": " smelled",
    "2417": " saved",
    "2418": " pin",
    "2419": "rass",
    "2420": " neigh",
    "2421": "arrass",
    "2422": "iting",
    "2423": " honest",
    "2424": " av",
    "2425": "arge",
    "2426": " embarrass",
    "2427": " lift",
    "2428": " van",
    "2429": " forgive",
    "2430": " tidy",
    "2431": " weak",
    "2432": "urse",
    "2433": " puts",
    "2434": "unk",
    "2435": " kick",
    "2436": " shirt",
    "2437": " With",
    "2438": " mind",
    "2439": " Ollie",
    "2440": " neighb",
    "2441": " plants",
    "2442": " sol",
    "2443": " Momo",
    "2444": " gently",
    "2445": " cozy",
    "2446": "orrow",
    "2447": "ming",
    "2448": " explor",
    "2449": "sp",
    "2450": " mistake",
    "2451": " yog",
    "2452": "oc",
    "2453": "oomy",
    "2454": " pointed",
    "2455": " lad",
    "2456": " af",
    "2457": " stood",
    "2458": "ork",
    "2459": " onto",
    "2460": " waiting",
    "2461": " jumping",
    "2462": " prince",
    "2463": " cross",
    "2464": " lock",
    "2465": " cheer",
    "2466": " queen",
    "2467": " Why",
    "2468": " Mary",
    "2469": " wing",
    "2470": "ones",
    "2471": "we",
    "2472": " large",
    "2473": " lovely",
    "2474": "ult",
    "2475": " sur",
    "2476": " ret",
    "2477": "And",
    "2478": " deer",
    "2479": " chew",
    "2480": " couch",
    "2481": " bal",
    "2482": "aughter",
    "2483": " stret",
    "2484": "era",
    "2485": " Their",
    "2486": " places",
    "2487": " My",
    "2488": " ladder",
    "2489": " return",
    "2490": "raid",
    "2491": " ants",
    "2492": " dish",
    "2493": " afraid",
    "2494": " cleaned",
    "2495": " tomorrow",
    "2496": " building",
    "2497": " sandwich",
    "2498": " person",
    "2499": "Sally",
    "2500": "ek",
    "2501": "ned",
    "2502": " pretended",
    "2503": " bounce",
    "2504": " wip",
    "2505": "gest",
    "2506": " match",
    "2507": " rich",
    "2508": "uce",
    "2509": " pizz",
    "2510": " gather",
    "2511": " search",
    "2512": " boring",
    "2513": "oman",
    "2514": " Somet",
    "2515": " teeth",
    "2516": " hum",
    "2517": "Kitty",
    "2518": "My",
    "2519": "aced",
    "2520": " daughter",
    "2521": " woman",
    "2522": " scarf",
    "2523": " goes",
    "2524": " Together",
    "2525": " law",
    "2526": " stra",
    "2527": " swimming",
    "2528": " furry",
    "2529": " splashed",
    "2530": " pri",
    "2531": " loves",
    "2532": " true",
    "2533": " screamed",
    "2534": " lazy",
    "2535": " gen",
    "2536": " answer",
    "2537": " number",
    "2538": " eag",
    "2539": " ashamed",
    "2540": " pizza",
    "2541": "aw",
    "2542": " appeared",
    "2543": " fear",
    "2544": " nearby",
    "2545": " powerful",
    "2546": " flag",
    "2547": " St",
    "2548": " hang",
    "2549": "vous",
    "2550": " clown",
    "2551": " chase",
    "2552": " motor",
    "2553": " wand",
    "2554": " TV",
    "2555": " rub",
    "2556": " success",
    "2557": " chocol",
    "2558": " If",
    "2559": " creative",
    "2560": " trust",
    "2561": " wearing",
    "2562": " noisy",
    "2563": " matter",
    "2564": "pa",
    "2565": " dig",
    "2566": " hello",
    "2567": " ner",
    "2568": " tool",
    "2569": " saf",
    "2570": " Bird",
    "2571": "ado",
    "2572": " nervous",
    "2573": "elp",
    "2574": " test",
    "2575": " smiling",
    "2576": " sold",
    "2577": "icked",
    "2578": "oppy",
    "2579": "osaur",
    "2580": " circle",
    "2581": "mb",
    "2582": " map",
    "2583": " drank",
    "2584": " class",
    "2585": " tries",
    "2586": " chocolate",
    "2587": " Please",
    "2588": " impress",
    "2589": " knee",
    "2590": " gener",
    "2591": " dinosaur",
    "2592": " polite",
    "2593": " mirr",
    "2594": " Bobby",
    "2595": " Tiny",
    "2596": " balloons",
    "2597": " gold",
    "2598": " rare",
    "2599": " protect",
    "2600": " cand",
    "2601": "Stop",
    "2602": " Go",
    "2603": " carried",
    "2604": "ensive",
    "2605": " ap",
    "2606": " shadow",
    "2607": " mirror",
    "2608": " Don",
    "2609": " bald",
    "2610": " gun",
    "2611": "ina",
    "2612": " expensive",
    "2613": " reg",
    "2614": "iff",
    "2615": " mysterious",
    "2616": " Sp",
    "2617": " pump",
    "2618": " note",
    "2619": " hero",
    "2620": " march",
    "2621": " har",
    "2622": "arl",
    "2623": " icy",
    "2624": " respect",
    "2625": " weird",
    "2626": " snee",
    "2627": " cri",
    "2628": " gate",
    "2629": " soap",
    "2630": "rag",
    "2631": "ute",
    "2632": "issors",
    "2633": " these",
    "2634": " poor",
    "2635": " towel",
    "2636": " whale",
    "2637": " feet",
    "2638": " tape",
    "2639": " dizzy",
    "2640": "itter",
    "2641": " generous",
    "2642": "ndpa",
    "2643": " pres",
    "2644": " Benny",
    "2645": "nic",
    "2646": " disco",
    "2647": "Help",
    "2648": "ventually",
    "2649": " picnic",
    "2650": " mic",
    "2651": " lead",
    "2652": " sque",
    "2653": " embarrassed",
    "2654": " journey",
    "2655": " sugar",
    "2656": "isp",
    "2657": "scape",
    "2658": " boot",
    "2659": " tent",
    "2660": " peaceful",
    "2661": " fat",
    "2662": " Bear",
    "2663": " scissors",
    "2664": " tasted",
    "2665": " yelled",
    "2666": "Tommy",
    "2667": " tick",
    "2668": " mel",
    "2669": " brush",
    "2670": " dancing",
    "2671": "ness",
    "2672": " glue",
    "2673": " hur",
    "2674": " rough",
    "2675": " clap",
    "2676": " bridge",
    "2677": "ote",
    "2678": " decor",
    "2679": " closet",
    "2680": " crown",
    "2681": " stir",
    "2682": "ual",
    "2683": "imp",
    "2684": " print",
    "2685": " Sometimes",
    "2686": "owed",
    "2687": "airs",
    "2688": " How",
    "2689": "ume",
    "2690": " cap",
    "2691": " lamp",
    "2692": " vase",
    "2693": " scare",
    "2694": "lebr",
    "2695": " relie",
    "2696": "lves",
    "2697": "any",
    "2698": " eld",
    "2699": " tele",
    "2700": " celebr",
    "2701": " gigg",
    "2702": " whisp",
    "2703": " log",
    "2704": " blow",
    "2705": " painted",
    "2706": " sco",
    "2707": " Ducky",
    "2708": " pay",
    "2709": "erries",
    "2710": " wis",
    "2711": " berries",
    "2712": " mixed",
    "2713": " spread",
    "2714": " wouldn",
    "2715": " cage",
    "2716": " bake",
    "2717": "rob",
    "2718": "getable",
    "2719": " mountain",
    "2720": " adm",
    "2721": " drawing",
    "2722": " become",
    "2723": " famous",
    "2724": " knocked",
    "2725": " bean",
    "2726": " norm",
    "2727": " vegetable",
    "2728": "asp",
    "2729": " kicked",
    "2730": "ustr",
    "2731": " shark",
    "2732": "ser",
    "2733": " incred",
    "2734": " lose",
    "2735": " normal",
    "2736": " wrap",
    "2737": "ced",
    "2738": " group",
    "2739": " thick",
    "2740": " 3",
    "2741": " fine",
    "2742": " glass",
    "2743": " ignor",
    "2744": " clock",
    "2745": " team",
    "2746": " elderly",
    "2747": " clear",
    "2748": " corner",
    "2749": " frustr",
    "2750": " mighty",
    "2751": "robe",
    "2752": " cone",
    "2753": " incredible",
    "2754": " Br",
    "2755": "ighed",
    "2756": "Dad",
    "2757": " moms",
    "2758": " balance",
    "2759": " sock",
    "2760": " space",
    "2761": " jam",
    "2762": "ragile",
    "2763": " fright",
    "2764": " organized",
    "2765": " branches",
    "2766": " roar",
    "2767": "port",
    "2768": " sword",
    "2769": "alous",
    "2770": " Mama",
    "2771": " guess",
    "2772": " fool",
    "2773": " sell",
    "2774": " feed",
    "2775": " Some",
    "2776": " which",
    "2777": " horn",
    "2778": " present",
    "2779": " jealous",
    "2780": " yarn",
    "2781": "ony",
    "2782": " fragile",
    "2783": " burn",
    "2784": " understood",
    "2785": " mis",
    "2786": " stubb",
    "2787": " ter",
    "2788": " frustrated",
    "2789": "Where",
    "2790": "ray",
    "2791": " hose",
    "2792": "cient",
    "2793": " spent",
    "2794": " shoe",
    "2795": " taught",
    "2796": " stubborn",
    "2797": " twist",
    "2798": " creature",
    "2799": " chest",
    "2800": " spoiled",
    "2801": " relieved",
    "2802": " ancient",
    "2803": "ique",
    "2804": " wake",
    "2805": " fier",
    "2806": " pray",
    "2807": " fierce",
    "2808": " eggs",
    "2809": " cab",
    "2810": " terri",
    "2811": " barn",
    "2812": " pumpkin",
    "2813": " comfortable",
    "2814": " ord",
    "2815": "ym",
    "2816": " frightened",
    "2817": "orry",
    "2818": " toug",
    "2819": " unique",
    "2820": " measure",
    "2821": " goat",
    "2822": " wagon",
    "2823": " unus",
    "2824": " breath",
    "2825": " foolish",
    "2826": " useful",
    "2827": " exploring",
    "2828": "dle",
    "2829": " straw",
    "2830": " unusual",
    "2831": " dug",
    "2832": " clay",
    "2833": " discover",
    "2834": " tomato",
    "2835": " Pe",
    "2836": " dead",
    "2837": " finding",
    "2838": " police",
    "2839": " wrote",
    "2840": " clum",
    "2841": " exam",
    "2842": "lace",
    "2843": " waves",
    "2844": " square",
    "2845": " hears",
    "2846": " cabin",
    "2847": " tells",
    "2848": " necklace",
    "2849": " dull",
    "2850": " clumsy",
    "2851": " tough",
    "2852": " bubbles",
    "2853": " nosy",
    "2854": "kn",
    "2855": " searched",
    "2856": "Together",
    "2857": " washed",
    "2858": " bathroom",
    "2859": " paws",
    "2860": "bby",
    "2861": "ond",
    "2862": "unn",
    "2863": "anged",
    "2864": " board",
    "2865": "known",
    "2866": "fic",
    "2867": " asking",
    "2868": " crazy",
    "2869": " thankful",
    "2870": " sunf",
    "2871": " bitter",
    "2872": "yal",
    "2873": " pir",
    "2874": "berry",
    "2875": "alk",
    "2876": " ind",
    "2877": " diffic",
    "2878": " rose",
    "2879": "cil",
    "2880": " swan",
    "2881": " bloom",
    "2882": " unknown",
    "2883": " Ella",
    "2884": " covered",
    "2885": " difficult",
    "2886": " add",
    "2887": " pencil",
    "2888": " finger",
    "2889": " ham",
    "2890": " hoop",
    "2891": " jet",
    "2892": " witch",
    "2893": " drop",
    "2894": "Me",
    "2895": " '",
    "2896": " chicken",
    "2897": " gloomy",
    "2898": "apped",
    "2899": " loyal",
    "2900": "als",
    "2901": "Here",
    "2902": " wealthy",
    "2903": "com",
    "2904": "light",
    "2905": " unl",
    "2906": " cats",
    "2907": " ending",
    "2908": " guit",
    "2909": "bled",
    "2910": "shine",
    "2911": " dove",
    "2912": " joined",
    "2913": " cher",
    "2914": "anut",
    "2915": " mov",
    "2916": " terrible",
    "2917": " yours",
    "2918": "iant",
    "2919": " U",
    "2920": " Rex",
    "2921": " salad",
    "2922": " Andy",
    "2923": " nuts",
    "2924": " rat",
    "2925": " lif",
    "2926": "ground",
    "2927": " tiger",
    "2928": " potato",
    "2929": " mask",
    "2930": "xible",
    "2931": "selves",
    "2932": " value",
    "2933": " changed",
    "2934": " moving",
    "2935": " exciting",
    "2936": "ormous",
    "2937": " Many",
    "2938": " body",
    "2939": " Tr",
    "2940": " toast",
    "2941": " record",
    "2942": "erp",
    "2943": " zip",
    "2944": " disg",
    "2945": " cheap",
    "2946": " guitar",
    "2947": "irsty",
    "2948": " knowing",
    "2949": " adventur",
    "2950": " yourself",
    "2951": " enormous",
    "2952": " hairy",
    "2953": "Every",
    "2954": " shoot",
    "2955": " Brown",
    "2956": " bored",
    "2957": " pepper",
    "2958": " remind",
    "2959": "ory",
    "2960": "land",
    "2961": " acorn",
    "2962": " adventurous",
    "2963": " sunshine",
    "2964": " smaller",
    "2965": " stuff",
    "2966": " hats",
    "2967": " solve",
    "2968": " Jimmy",
    "2969": " flexible",
    "2970": " cost",
    "2971": "rilliant",
    "2972": " knife",
    "2973": " perform",
    "2974": " snacks",
    "2975": " nods",
    "2976": " shore",
    "2977": " brilliant",
    "2978": " thirsty",
    "2979": " delicate",
    "2980": " frown",
    "2981": " disgust",
    "2982": " collect",
    "2983": " stri",
    "2984": " seeds",
    "2985": " counted",
    "2986": " asleep",
    "2987": " banana",
    "2988": "reen",
    "2989": " mailbox",
    "2990": "iness",
    "2991": " dough",
    "2992": " trick",
    "2993": " neighbor",
    "2994": "ungle",
    "2995": " heal",
    "2996": "Who",
    "2997": "live",
    "2998": " stage",
    "2999": "ident",
    "3000": " market",
    "3001": " cube",
    "3002": " stat",
    "3003": " jungle",
    "3004": " squee",
    "3005": "mbre",
    "3006": " explained",
    "3007": "ates",
    "3008": " umbre",
    "3009": " disgusting",
    "3010": "Jim",
    "3011": " lab",
    "3012": " jolly",
    "3013": " flash",
    "3014": "und",
    "3015": " fridge",
    "3016": "inal",
    "3017": "pid",
    "3018": "ilt",
    "3019": " crane",
    "3020": "corn",
    "3021": " suit",
    "3022": " rh",
    "3023": "iddle",
    "3024": " sunflower",
    "3025": " times",
    "3026": " Al",
    "3027": "erpill",
    "3028": " caterpill",
    "3029": " relax",
    "3030": " shiver",
    "3031": " four",
    "3032": " island",
    "3033": "iginal",
    "3034": " harm",
    "3035": "ict",
    "3036": " While",
    "3037": "ying",
    "3038": " stupid",
    "3039": " medic",
    "3040": " Instead",
    "3041": " comb",
    "3042": " goose",
    "3043": " cro",
    "3044": "edient",
    "3045": " Will",
    "3046": " stove",
    "3047": "If",
    "3048": "Are",
    "3049": " independ",
    "3050": "Mum",
    "3051": "most",
    "3052": " spring",
    "3053": " gem",
    "3054": " batter",
    "3055": " sighed",
    "3056": " vegetables",
    "3057": " stones",
    "3058": "pes",
    "3059": " shine",
    "3060": "How",
    "3061": " medicine",
    "3062": " depend",
    "3063": " rug",
    "3064": " Your",
    "3065": " careless",
    "3066": " original",
    "3067": " stamp",
    "3068": " gar",
    "3069": " cries",
    "3070": "Inside",
    "3071": "gu",
    "3072": " carrots",
    "3073": " scr",
    "3074": " successful",
    "3075": " sauce",
    "3076": " jeep",
    "3077": " popcorn",
    "3078": " meal",
    "3079": " obedient",
    "3080": " almost",
    "3081": " middle",
    "3082": " magn",
    "3083": " study",
    "3084": " independent",
    "3085": " fearful",
    "3086": " jack",
    "3087": "met",
    "3088": "inky",
    "3089": "Sorry",
    "3090": " Sammy",
    "3091": " escape",
    "3092": " caterpillar",
    "3093": " serious",
    "3094": " peanut",
    "3095": " bedroom",
    "3096": " eager",
    "3097": "aken",
    "3098": " gets",
    "3099": " parrot",
    "3100": " statue",
    "3101": " helmet",
    "3102": " pebb",
    "3103": " No",
    "3104": " fountain",
    "3105": " raven",
    "3106": " ang",
    "3107": " pasta",
    "3108": " umbrella",
    "3109": " compet",
    "3110": "There",
    "3111": " jacket",
    "3112": " belonged",
    "3113": " dest",
    "3114": " filthy",
    "3115": " design",
    "3116": " borrow",
    "3117": " cam",
    "3118": "erable",
    "3119": " houses",
    "3120": " prize",
    "3121": " hay",
    "3122": " brace",
    "3123": " standing",
    "3124": " miserable",
    "3125": " raced",
    "3126": " taken",
    "3127": "ages",
    "3128": " fork",
    "3129": " crayon",
    "3130": " painting",
    "3131": "io",
    "3132": " triang",
    "3133": " impressive",
    "3134": " choose",
    "3135": " fig",
    "3136": " tied",
    "3137": "iable",
    "3138": " spotted",
    "3139": " lifted",
    "3140": " slipped",
    "3141": "ours",
    "3142": " tank",
    "3143": " thoughtful",
    "3144": " dependable",
    "3145": " steal",
    "3146": " garage",
    "3147": "enny",
    "3148": " built",
    "3149": " mush",
    "3150": " er",
    "3151": "ipe",
    "3152": " mole",
    "3153": " crawled",
    "3154": " scale",
    "3155": " boats",
    "3156": " pian",
    "3157": " pant",
    "3158": " hammer",
    "3159": " bottom",
    "3160": "lph",
    "3161": " cheerful",
    "3162": " using",
    "3163": " smoke",
    "3164": " picks",
    "3165": " moder",
    "3166": "berries",
    "3167": " shows",
    "3168": "rn",
    "3169": " piano",
    "3170": " magnet",
    "3171": "dile",
    "3172": "codile",
    "3173": " hurts",
    "3174": "inary",
    "3175": " ref",
    "3176": " crack",
    "3177": " eng",
    "3178": " aunt",
    "3179": " melon",
    "3180": " waff",
    "3181": " modern",
    "3182": " dolph",
    "3183": "unnel",
    "3184": "cream",
    "3185": "pack",
    "3186": " tunnel",
    "3187": "oin",
    "3188": " arrow",
    "3189": " reliable",
    "3190": " hopping",
    "3191": " mushroom",
    "3192": " jug",
    "3193": "Timmy",
    "3194": " squash",
    "3195": " gum",
    "3196": " sink",
    "3197": " movie",
    "3198": " tax",
    "3199": " flute",
    "3200": " beet",
    "3201": " lean",
    "3202": "Their",
    "3203": "iv",
    "3204": " popular",
    "3205": "opter",
    "3206": "icopter",
    "3207": " cryst",
    "3208": " ones",
    "3209": " sil",
    "3210": " competit",
    "3211": " helicopter",
    "3212": "aser",
    "3213": " needs",
    "3214": "ipop",
    "3215": "llipop",
    "3216": " crocodile",
    "3217": " liz",
    "3218": "Molly",
    "3219": " press",
    "3220": " troubled",
    "3221": " pige",
    "3222": " locked",
    "3223": " tricks",
    "3224": " lollipop",
    "3225": " playful",
    "3226": " humble",
    "3227": " taxi",
    "3228": " kissed",
    "3229": " low",
    "3230": "appy",
    "3231": "comfortable",
    "3232": "amond",
    "3233": " uncomfortable",
    "3234": " rid",
    "3235": "host",
    "3236": " wander",
    "3237": "atch",
    "3238": " angel",
    "3239": "edy",
    "3240": "cles",
    "3241": " torn",
    "3242": " grace",
    "3243": " anx",
    "3244": " wrapped",
    "3245": " muff",
    "3246": " twig",
    "3247": " pants",
    "3248": " disappoin",
    "3249": " Sn",
    "3250": " helps",
    "3251": " diamond",
    "3252": " camera",
    "3253": "atter",
    "3254": "oto",
    "3255": " anxious",
    "3256": " ghost",
    "3257": " tears",
    "3258": " ruined",
    "3259": "cident",
    "3260": " Jenny",
    "3261": "ilty",
    "3262": " quar",
    "3263": "aff",
    "3264": " Even",
    "3265": " fis",
    "3266": "opl",
    "3267": " belt",
    "3268": "eropl",
    "3269": " env",
    "3270": " guilty",
    "3271": " bull",
    "3272": " aeropl",
    "3273": " helpless",
    "3274": " happiness",
    "3275": " lizard",
    "3276": " boys",
    "3277": "cut",
    "3278": " cere",
    "3279": " walks",
    "3280": "cean",
    "3281": " passed",
    "3282": " meant",
    "3283": " ocean",
    "3284": " fluffy",
    "3285": " wire",
    "3286": " nail",
    "3287": " bracelet",
    "3288": " deaf",
    "3289": "zed",
    "3290": " stretch",
    "3291": " candle",
    "3292": " cact",
    "3293": "tt",
    "3294": " beetle",
    "3295": " mop",
    "3296": " harmless",
    "3297": "umpet",
    "3298": " ordinary",
    "3299": " answered",
    "3300": " collar",
    "3301": " cop",
    "3302": " bees",
    "3303": " tire",
    "3304": " shape",
    "3305": " quarrel",
    "3306": " radio",
    "3307": " flashlight",
    "3308": " crystal",
    "3309": " harder",
    "3310": " poured",
    "3311": " trumpet",
    "3312": " engine",
    "3313": "Mama",
    "3314": " persist",
    "3315": " hunt",
    "3316": " tooth",
    "3317": " cereal",
    "3318": " invited",
    "3319": " comput",
    "3320": " tag",
    "3321": " office",
    "3322": " melt",
    "3323": " spill",
    "3324": " charm",
    "3325": "coa",
    "3326": " lit",
    "3327": " scoot",
    "3328": " comet",
    "3329": " triangle",
    "3330": "ief",
    "3331": " mug",
    "3332": " rep",
    "3333": "ube",
    "3334": " yogurt",
    "3335": " spend",
    "3336": " compass",
    "3337": " accident",
    "3338": " shade",
    "3339": "hett",
    "3340": "aghett",
    "3341": "aghetti",
    "3342": " disappointed",
    "3343": " licked",
    "3344": " cactus",
    "3345": " pale",
    "3346": " cush",
    "3347": " figure",
    "3348": " regular",
    "3349": " giving",
    "3350": " avoc",
    "3351": " sheet",
    "3352": " whispered",
    "3353": "aze",
    "3354": "uth",
    "3355": "ellig",
    "3356": " create",
    "3357": " barber",
    "3358": " intellig",
    "3359": " pipe",
    "3360": " rode",
    "3361": " roof",
    "3362": "Jane",
    "3363": " thread",
    "3364": "ither",
    "3365": " vi",
    "3366": " load",
    "3367": " libr",
    "3368": " gifted",
    "3369": "ccol",
    "3370": " practiced",
    "3371": " delight",
    "3372": "ccoli",
    "3373": " harsh",
    "3374": "asses",
    "3375": " pow",
    "3376": " dust",
    "3377": " True",
    "3378": " bicy",
    "3379": "azz",
    "3380": " spaghetti",
    "3381": " compassion",
    "3382": " sailed",
    "3383": "urkey",
    "3384": "ubby",
    "3385": " forward",
    "3386": " persistent",
    "3387": " speed",
    "3388": " mitten",
    "3389": " pro",
    "3390": " cocoa",
    "3391": " envel",
    "3392": " questions",
    "3393": " computer",
    "3394": " coo",
    "3395": " feathers",
    "3396": "hip",
    "3397": " glove",
    "3398": "ging",
    "3399": "Bobo",
    "3400": " rice",
    "3401": " shrimp",
    "3402": " desk",
    "3403": " stream",
    "3404": " inse",
    "3405": " pigeon",
    "3406": " charming",
    "3407": " ears",
    "3408": " carp",
    "3409": "lcan",
    "3410": " envious",
    "3411": " knot",
    "3412": " turkey",
    "3413": " stronger",
    "3414": "omes",
    "3415": " coins",
    "3416": " tap",
    "3417": " raft",
    "3418": "lcano",
    "3419": "weet",
    "3420": " trap",
    "3421": "umbers",
    "3422": " aeroplane",
    "3423": " trunk",
    "3424": " wheat",
    "3425": " boxes",
    "3426": " chubby",
    "3427": " carpet",
    "3428": " restless",
    "3429": " intelligent",
    "3430": " tube",
    "3431": " spun",
    "3432": " dreams",
    "3433": " half",
    "3434": " friendship",
    "3435": "ulif",
    "3436": "olin",
    "3437": " loop",
    "3438": " crawl",
    "3439": " broccoli",
    "3440": " onion",
    "3441": " week",
    "3442": " deliver",
    "3443": "anger",
    "3444": " acce",
    "3445": " vide",
    "3446": " volcano",
    "3447": " Jake",
    "3448": " sle",
    "3449": " track",
    "3450": " bri",
    "3451": " caulif",
    "3452": " vine",
    "3453": "ye",
    "3454": " ticket",
    "3455": " thief",
    "3456": "essie",
    "3457": "cycle",
    "3458": " louder",
    "3459": " insect",
    "3460": " numbers",
    "3461": "asing",
    "3462": " yaw",
    "3463": " haircut",
    "3464": "ital",
    "3465": " sleeping",
    "3466": " mill",
    "3467": " eventually",
    "3468": " alert",
    "3469": " excite",
    "3470": " pebble",
    "3471": " hosp",
    "3472": " attract",
    "3473": " planet",
    "3474": " Today",
    "3475": " univer",
    "3476": "isted",
    "3477": "ulu",
    "3478": " hospital",
    "3479": " eraser",
    "3480": " returned",
    "3481": " destro",
    "3482": " graceful",
    "3483": " happening",
    "3484": "ache",
    "3485": " OK",
    "3486": " Emily",
    "3487": " decide",
    "3488": " learning",
    "3489": " screen",
    "3490": "rework",
    "3491": " nicely",
    "3492": " leop",
    "3493": " cauliflower",
    "3494": " competitive",
    "3495": " poem",
    "3496": " celebrate",
    "3497": " curt",
    "3498": " peach",
    "3499": " soldier",
    "3500": " saus",
    "3501": " parade",
    "3502": "atient",
    "3503": " attractive",
    "3504": " curtain",
    "3505": " dolphin",
    "3506": " base",
    "3507": " violin",
    "3508": " ways",
    "3509": "Go",
    "3510": "ats",
    "3511": " travel",
    "3512": " rod",
    "3513": " ignorant",
    "3514": "ulb",
    "3515": " wheels",
    "3516": " yach",
    "3517": " scatter",
    "3518": " deter",
    "3519": " compassionate",
    "3520": " barrel",
    "3521": " envelope",
    "3522": " bubble",
    "3523": " lying",
    "3524": " firework",
    "3525": " sort",
    "3526": " question",
    "3527": "zzy",
    "3528": " Pipp",
    "3529": " scooter",
    "3530": " determ",
    "3531": " rag",
    "3532": " thu",
    "3533": " bicycle",
    "3534": "elery",
    "3535": " needle",
    "3536": " Fr",
    "3537": " judge",
    "3538": " bulb",
    "3539": " leopard",
    "3540": " tem",
    "3541": " yacht",
    "3542": " pony",
    "3543": " cricket",
    "3544": " order",
    "3545": " homes",
    "3546": " ador",
    "3547": "tern",
    "3548": " truth",
    "3549": " hook",
    "3550": "dom",
    "3551": " rubbed",
    "3552": "ete",
    "3553": "igator",
    "3554": " bushes",
    "3555": "Sarah",
    "3556": " uncle",
    "3557": " cushion",
    "3558": " spell",
    "3559": " grown",
    "3560": " cooked",
    "3561": " adorable",
    "3562": " chalk",
    "3563": " soar",
    "3564": " purse",
    "3565": " skin",
    "3566": " themselves",
    "3567": " impatient",
    "3568": " celery",
    "3569": " tray",
    "3570": " shells",
    "3571": " pengu",
    "3572": " sniff",
    "3573": " prun",
    "3574": " walls",
    "3575": " seal",
    "3576": " lively",
    "3577": " case",
    "3578": " alligator",
    "3579": " distant",
    "3580": " radish",
    "3581": " saying",
    "3582": " speak",
    "3583": " motorcycle",
    "3584": " meat",
    "3585": " send",
    "3586": "illa",
    "3587": " spinning",
    "3588": " forth",
    "3589": " counting",
    "3590": " enth",
    "3591": " bounced",
    "3592": " chain",
    "3593": " ed",
    "3594": " cleaning",
    "3595": "ebra",
    "3596": " film",
    "3597": " slept",
    "3598": " pit",
    "3599": " surf",
    "3600": " marry",
    "3601": "usia",
    "3602": " wallet",
    "3603": " enthusia",
    "3604": " metal",
    "3605": "urb",
    "3606": "ebook",
    "3607": " bin",
    "3608": " notebook",
    "3609": " wiped",
    "3610": " skip",
    "3611": "ision",
    "3612": "chair",
    "3613": " biggest",
    "3614": " impro",
    "3615": " avocado",
    "3616": " behave",
    "3617": " destroy",
    "3618": "vator",
    "3619": " bandage",
    "3620": " laughs",
    "3621": " steak",
    "3622": " pattern",
    "3623": " Sh",
    "3624": " post",
    "3625": " elevator",
    "3626": " Buzz",
    "3627": "usie",
    "3628": " dive",
    "3629": " shut",
    "3630": " skipped",
    "3631": " unlock",
    "3632": " diary",
    "3633": "dest",
    "3634": "ject",
    "3635": " zebra",
    "3636": " bags",
    "3637": "ating",
    "3638": " armchair",
    "3639": "rage",
    "3640": "aged",
    "3641": " disturb",
    "3642": " oy",
    "3643": " pole",
    "3644": " showing",
    "3645": " gathered",
    "3646": " club",
    "3647": " nurse",
    "3648": "bul",
    "3649": " earth",
    "3650": " enc",
    "3651": " stranger",
    "3652": " sweater",
    "3653": " jellyfish",
    "3654": " screw",
    "3655": " temp",
    "3656": " Poppy",
    "3657": " compl",
    "3658": " mixer",
    "3659": "Give",
    "3660": " skull",
    "3661": " lime",
    "3662": " bump",
    "3663": "bulance",
    "3664": " ambulance",
    "3665": "nam",
    "3666": " father",
    "3667": " journal",
    "3668": "Gra",
    "3669": " loudly",
    "3670": "ito",
    "3671": " folder",
    "3672": " shield",
    "3673": " Bet",
    "3674": " Lulu",
    "3675": " library",
    "3676": " Peter",
    "3677": " buttons",
    "3678": " playground",
    "3679": " trucks",
    "3680": " ink",
    "3681": " lights",
    "3682": " tummy",
    "3683": " pointing",
    "3684": " city",
    "3685": " decorate",
    "3686": " station",
    "3687": "irit",
    "3688": " prep",
    "3689": " falls",
    "3690": "quito",
    "3691": " Polly",
    "3692": "Billy",
    "3693": " fu",
    "3694": " Fo",
    "3695": "ention",
    "3696": "nger",
    "3697": " Birdy",
    "3698": "lies",
    "3699": " herb",
    "3700": "nament",
    "3701": " ornament",
    "3702": " modest",
    "3703": " guard",
    "3704": " mos",
    "3705": " knows",
    "3706": " cord",
    "3707": " polish",
    "3708": " marble",
    "3709": "oby",
    "3710": " mosquito",
    "3711": "umbled",
    "3712": " salt",
    "3713": " attic",
    "3714": " whenever",
    "3715": " vest",
    "3716": "ctop",
    "3717": " resc",
    "3718": " yet",
    "3719": " ple",
    "3720": " disappeared",
    "3721": "ceed",
    "3722": " strawberry",
    "3723": " once",
    "3724": " Mum",
    "3725": " kay",
    "3726": " brothers",
    "3727": " itch",
    "3728": " pirate",
    "3729": " football",
    "3730": " split",
    "3731": "kele",
    "3732": "keleton",
    "3733": " hipp",
    "3734": " aut",
    "3735": " led",
    "3736": "uring",
    "3737": "ctopus",
    "3738": " driving",
    "3739": " cable",
    "3740": " support",
    "3741": " calling",
    "3742": " cupboard",
    "3743": "aky",
    "3744": "ushed",
    "3745": " wishes",
    "3746": " complet",
    "3747": " tripped",
    "3748": " root",
    "3749": " kayak",
    "3750": " octopus",
    "3751": "obile",
    "3752": " added",
    "3753": " edge",
    "3754": " mild",
    "3755": "stic",
    "3756": " determined",
    "3757": " succeed",
    "3758": "?\".",
    "3759": " reading",
    "3760": "omobile",
    "3761": " coal",
    "3762": "Well",
    "3763": "gl",
    "3764": "utes",
    "3765": "par",
    "3766": " suggest",
    "3767": " stack",
    "3768": " thunder",
    "3769": " kindness",
    "3770": " automobile",
    "3771": " complain",
    "3772": " enthusiastic",
    "3773": " sneeze",
    "3774": " cartoon",
    "3775": " yoga",
    "3776": " Little",
    "3777": " growl",
    "3778": "htub",
    "3779": " flea",
    "3780": "la",
    "3781": " meadow",
    "3782": " drawer",
    "3783": " bathtub",
    "3784": " ribb",
    "3785": "ophone",
    "3786": " means",
    "3787": " hall",
    "3788": " golf",
    "3789": " skeleton",
    "3790": " math",
    "3791": " veil",
    "3792": " hunter",
    "3793": " gor",
    "3794": " flame",
    "3795": " poke",
    "3796": " video",
    "3797": " chess",
    "3798": " troph",
    "3799": " cups",
    "3800": " glowing",
    "3801": " matt",
    "3802": " oyster",
    "3803": "work",
    "3804": " penny",
    "3805": " spear",
    "3806": " itself",
    "3807": " drawings",
    "3808": " hippo",
    "3809": " repair",
    "3810": " switch",
    "3811": "glasses",
    "3812": " sunglasses",
    "3813": " teleph",
    "3814": " costume",
    "3815": " dess",
    "3816": " zipp",
    "3817": ",\u201d",
    "3818": " repe",
    "3819": " muffin",
    "3820": " arg",
    "3821": " pastry",
    "3822": " pun",
    "3823": " rolling",
    "3824": " minutes",
    "3825": " packed",
    "3826": " makeup",
    "3827": "iron",
    "3828": "ric",
    "3829": " People",
    "3830": " waffle",
    "3831": "case",
    "3832": " handle",
    "3833": " pear",
    "3834": " maze",
    "3835": " telephone",
    "3836": " pine",
    "3837": "ait",
    "3838": " gear",
    "3839": " hedge",
    "3840": " mattress",
    "3841": " package",
    "3842": "aving",
    "3843": " Miss",
    "3844": " shocked",
    "3845": "ines",
    "3846": " trophy",
    "3847": " powder",
    "3848": " knight",
    "3849": " cob",
    "3850": " missile",
    "3851": " managed",
    "3852": " frame",
    "3853": " encou",
    "3854": " wife",
    "3855": " ok",
    "3856": " separ",
    "3857": "web",
    "3858": " stairs",
    "3859": " rot",
    "3860": " camp",
    "3861": "time",
    "3862": "urch",
    "3863": "rophone",
    "3864": " magaz",
    "3865": " strugg",
    "3866": " colour",
    "3867": " grapes",
    "3868": " file",
    "3869": "head",
    "3870": " Tina",
    "3871": " basketball",
    "3872": "Bye",
    "3873": "old",
    "3874": "per",
    "3875": " cobweb",
    "3876": "Re",
    "3877": "Jimmy",
    "3878": " Tweet",
    "3879": "See",
    "3880": " perm",
    "3881": " wool",
    "3882": " Dan",
    "3883": " microphone",
    "3884": "esday",
    "3885": " eye",
    "3886": " leash",
    "3887": " gasp",
    "3888": "iew",
    "3889": "keep",
    "3890": " weep",
    "3891": " barking",
    "3892": "ature",
    "3893": " safely",
    "3894": " tear",
    "3895": " view",
    "3896": " slides",
    "3897": "offe",
    "3898": " steps",
    "3899": "istol",
    "3900": "offee",
    "3901": " bananas",
    "3902": " staff",
    "3903": " spirit",
    "3904": " task",
    "3905": " giggled",
    "3906": " hoc",
    "3907": " hockey",
    "3908": " vend",
    "3909": " those",
    "3910": " gorilla",
    "3911": "Jill",
    "3912": " cooler",
    "3913": " Rose",
    "3914": "was",
    "3915": "cing",
    "3916": " early",
    "3917": " marched",
    "3918": "rosc",
    "3919": " mint",
    "3920": " Look",
    "3921": "washer",
    "3922": " flour",
    "3923": " hotel",
    "3924": "hic",
    "3925": " sailor",
    "3926": " dessert",
    "3927": " photo",
    "3928": "roscope",
    "3929": " vehic",
    "3930": "ilot",
    "3931": " oft",
    "3932": " often",
    "3933": " church",
    "3934": " Pete",
    "3935": " cooking",
    "3936": " remain",
    "3937": " five",
    "3938": " sausage",
    "3939": "otter",
    "3940": " ten",
    "3941": " tools",
    "3942": " medal",
    "3943": " either",
    "3944": " fireman",
    "3945": "chor",
    "3946": " grandpa",
    "3947": " otter",
    "3948": " baseball",
    "3949": " pretending",
    "3950": " pistol",
    "3951": " dishwasher",
    "3952": " rever",
    "3953": " organize",
    "3954": " pee",
    "3955": " vendor",
    "3956": " knock",
    "3957": " sight",
    "3958": " grill",
    "3959": " temple",
    "3960": " battery",
    "3961": " thinking",
    "3962": " opens",
    "3963": " ow",
    "3964": " realised",
    "3965": " iron",
    "3966": " laser",
    "3967": " sne",
    "3968": " sandbox",
    "3969": " oil",
    "3970": " patch",
    "3971": " hours",
    "3972": " rise",
    "3973": " whip",
    "3974": "'d",
    "3975": "ctory",
    "3976": " Give",
    "3977": " anchor",
    "3978": " trash",
    "3979": "ense",
    "3980": " short",
    "3981": "ney",
    "3982": " Betty",
    "3983": " rhin",
    "3984": " factory",
    "3985": "seum",
    "3986": " may",
    "3987": " ward",
    "3988": "ately",
    "3989": " cardboard",
    "3990": "ugged",
    "3991": " lotion",
    "3992": "Al",
    "3993": " message",
    "3994": " valu",
    "3995": " wardrobe",
    "3996": " cell",
    "3997": " museum",
    "3998": "apers",
    "3999": " ur",
    "4000": "ination",
    "4001": " hanging",
    "4002": "ucet",
    "4003": "ailable",
    "4004": " Sunny",
    "4005": " Zoom",
    "4006": " hive",
    "4007": "eer",
    "4008": " towers",
    "4009": "keeper",
    "4010": " blackboard",
    "4011": " mem",
    "4012": " excitement",
    "4013": " coffee",
    "4014": " pilot",
    "4015": "ready",
    "4016": "Fluffy",
    "4017": " napkin",
    "4018": " penguin",
    "4019": "ron",
    "4020": " check",
    "4021": " reward",
    "4022": "loo",
    "4023": " quit",
    "4024": " Pippin",
    "4025": " cane",
    "4026": " picking",
    "4027": "place",
    "4028": " Snow",
    "4029": "azor",
    "4030": " faucet",
    "4031": " ig",
    "4032": " passport",
    "4033": " Rob",
    "4034": " stumbled",
    "4035": " dreamed",
    "4036": " igloo",
    "4037": " Bessie",
    "4038": "aroo",
    "4039": "angaroo",
    "4040": " freez",
    "4041": " juicy",
    "4042": " allowed",
    "4043": "play",
    "4044": " holds",
    "4045": " already",
    "4046": " available",
    "4047": " sett",
    "4048": " bathe",
    "4049": " tornado",
    "4050": "imney",
    "4051": " fingers",
    "4052": "htray",
    "4053": " hanger",
    "4054": " newsp",
    "4055": " size",
    "4056": " laund",
    "4057": " lend",
    "4058": " chimney",
    "4059": " laundry",
    "4060": " oak",
    "4061": " fisher",
    "4062": " kangaroo",
    "4063": " men",
    "4064": " Everywhere",
    "4065": " telling",
    "4066": "Em",
    "4067": " novel",
    "4068": "body",
    "4069": " mummy",
    "4070": " pal",
    "4071": " mule",
    "4072": " cherries",
    "4073": " notice",
    "4074": " practice",
    "4075": " spilled",
    "4076": " reind",
    "4077": " complete",
    "4078": " enjoying",
    "4079": " microscope",
    "4080": "arian",
    "4081": "ampoo",
    "4082": " gain",
    "4083": " sub",
    "4084": " fireplace",
    "4085": " imagine",
    "4086": "anda",
    "4087": " display",
    "4088": "ocer",
    "4089": " Zip",
    "4090": " fastest",
    "4091": " magazine",
    "4092": " hurry",
    "4093": " cabinet",
    "4094": " shrink",
    "4095": " ashtray",
    "4096": "Wait",
    "4097": " cows",
    "4098": " Spike",
    "4099": "Joe",
    "4100": "gen",
    "4101": " palace",
    "4102": " improve",
    "4103": "aches",
    "4104": " rake",
    "4105": " reindeer",
    "4106": " falling",
    "4107": "oceros",
    "4108": " skirt",
    "4109": "ured",
    "4110": " discovered",
    "4111": " stared",
    "4112": " roared",
    "4113": "aid",
    "4114": " silver",
    "4115": " tub",
    "4116": " trail",
    "4117": "Is",
    "4118": " miner",
    "4119": "come",
    "4120": " bill",
    "4121": "iction",
    "4122": " fog",
    "4123": " ax",
    "4124": "stairs",
    "4125": "ilet",
    "4126": " hut",
    "4127": " happier",
    "4128": " taller",
    "4129": "ictionary",
    "4130": " oats",
    "4131": " fisherman",
    "4132": " object",
    "4133": " por",
    "4134": "vision",
    "4135": " valuable",
    "4136": " shampoo",
    "4137": " holes",
    "4138": " offered",
    "4139": " boots",
    "4140": " rhinoceros",
    "4141": " names",
    "4142": " toilet",
    "4143": " climbing",
    "4144": " blin",
    "4145": "vice",
    "4146": "Ow",
    "4147": " stretched",
    "4148": "iest",
    "4149": " zipper",
    "4150": " listening",
    "4151": " sym",
    "4152": " bathrobe",
    "4153": "alend",
    "4154": " jewelry",
    "4155": " Here",
    "4156": " jokes",
    "4157": " television",
    "4158": " prov",
    "4159": " calend",
    "4160": " stops",
    "4161": " axe",
    "4162": " jumps",
    "4163": " fuel",
    "4164": "cu",
    "4165": " sparkly",
    "4166": " perfume",
    "4167": " Susie",
    "4168": " bury",
    "4169": "bol",
    "4170": "Mummy",
    "4171": "lu",
    "4172": " pressed",
    "4173": " Kim",
    "4174": "reek",
    "4175": " rece",
    "4176": " Toby",
    "4177": " neat",
    "4178": " creek",
    "4179": " popped",
    "4180": " opera",
    "4181": " calendar",
    "4182": " snap",
    "4183": " gasped",
    "4184": " attach",
    "4185": " symbol",
    "4186": " tuna",
    "4187": " Mar",
    "4188": " papers",
    "4189": "Mr",
    "4190": " unpack",
    "4191": " resist",
    "4192": " dictionary",
    "4193": " subway",
    "4194": " letters",
    "4195": " freezer",
    "4196": " chose",
    "4197": " pinch",
    "4198": "zag",
    "4199": " spoke",
    "4200": " anyway",
    "4201": " super",
    "4202": " porch",
    "4203": " helper",
    "4204": "affe",
    "4205": " bikes",
    "4206": " lie",
    "4207": "arry",
    "4208": "iches",
    "4209": " tightly",
    "4210": " comfort",
    "4211": " shaking",
    "4212": " bookcase",
    "4213": " son",
    "4214": " razor",
    "4215": "aurant",
    "4216": " sandwiches",
    "4217": " Are",
    "4218": " ext",
    "4219": "igzag",
    "4220": " weigh",
    "4221": " against",
    "4222": " stickers",
    "4223": " restaurant",
    "4224": " newspaper",
    "4225": " blouse",
    "4226": "te",
    "4227": " vehicle",
    "4228": " swinging",
    "4229": " ped",
    "4230": " disag",
    "4231": " nature",
    "4232": " squirrels",
    "4233": "ival",
    "4234": " belongs",
    "4235": " swamp",
    "4236": " butterflies",
    "4237": " gym",
    "4238": "del",
    "4239": " inclu",
    "4240": " growing",
    "4241": " buckle",
    "4242": "omed",
    "4243": " stirred",
    "4244": " mustache",
    "4245": " billboard",
    "4246": "xy",
    "4247": " beep",
    "4248": " alarm",
    "4249": " lightning",
    "4250": " lip",
    "4251": " fest",
    "4252": " hung",
    "4253": "utor",
    "4254": " distance",
    "4255": "ogn",
    "4256": " cards",
    "4257": " obser",
    "4258": " agree",
    "4259": "Little",
    "4260": " tease",
    "4261": " recogn",
    "4262": " rubber",
    "4263": "ik",
    "4264": " hate",
    "4265": " sof",
    "4266": "fast",
    "4267": "ef",
    "4268": "Ouch",
    "4269": " doesn",
    "4270": " musician",
    "4271": " advice",
    "4272": " beef",
    "4273": " serve",
    "4274": "aspoon",
    "4275": " sweetie",
    "4276": " model",
    "4277": "lter",
    "4278": " crib",
    "4279": " blueberries",
    "4280": " sofa",
    "4281": " circles",
    "4282": " breakfast",
    "4283": " tutor",
    "4284": "asis",
    "4285": " bookshe",
    "4286": " giraffe",
    "4287": "stri",
    "4288": " festival",
    "4289": " separate",
    "4290": " shelter",
    "4291": " gas",
    "4292": " airport",
    "4293": " olive",
    "4294": " rail",
    "4295": " bookshelf",
    "4296": " frogs",
    "4297": " teaspoon",
    "4298": " reverse",
    "4299": " junk",
    "4300": " riding",
    "4301": " pleased",
    "4302": " drain",
    "4303": " Mrs",
    "4304": " wipe",
    "4305": " oasis",
    "4306": " soil",
    "4307": " ahead",
    "4308": " rescue",
    "4309": " leaving",
    "4310": "ummer",
    "4311": " painter",
    "4312": " squeeze",
    "4313": " chance",
    "4314": " poked",
    "4315": " knob",
    "4316": " Teddy",
    "4317": " peeked",
    "4318": " lumber",
    "4319": " trains",
    "4320": " extra",
    "4321": " slipp",
    "4322": " quiz",
    "4323": " refused",
    "4324": "res",
    "4325": "rmomet",
    "4326": " page",
    "4327": " rules",
    "4328": " happens",
    "4329": " sounded",
    "4330": " ins",
    "4331": " point",
    "4332": " winter",
    "4333": " dancer",
    "4334": " Grandpa",
    "4335": " birdc",
    "4336": " disappear",
    "4337": "rmometer",
    "4338": " Dolly",
    "4339": " weather",
    "4340": " waste",
    "4341": " lic",
    "4342": " birdcage",
    "4343": " theater",
    "4344": " reef",
    "4345": " carrying",
    "4346": "Daisy",
    "4347": " invite",
    "4348": "iform",
    "4349": " goal",
    "4350": " ostri",
    "4351": " uniform",
    "4352": " swung",
    "4353": " trade",
    "4354": " cliff",
    "4355": "ience",
    "4356": " lawn",
    "4357": "ola",
    "4358": " leaned",
    "4359": " Pandy",
    "4360": "angu",
    "4361": " accept",
    "4362": " admire",
    "4363": " fort",
    "4364": " accidentally",
    "4365": " pastel",
    "4366": "bbles",
    "4367": " stom",
    "4368": " langu",
    "4369": " twir",
    "4370": " suff",
    "4371": " panda",
    "4372": "riger",
    "4373": " bet",
    "4374": "rigerator",
    "4375": " peek",
    "4376": "render",
    "4377": " blinked",
    "4378": " starts",
    "4379": "na",
    "4380": " refrigerator",
    "4381": " anywhere",
    "4382": "!\".",
    "4383": " imagined",
    "4384": " dreaming",
    "4385": " remove",
    "4386": "night",
    "4387": " shower",
    "4388": " Lee",
    "4389": " classroom",
    "4390": " ceiling",
    "4391": " caring",
    "4392": "ium",
    "4393": " grand",
    "4394": " missing",
    "4395": "aked",
    "4396": " license",
    "4397": " stable",
    "4398": " thermometer",
    "4399": " monkeys",
    "4400": "astic",
    "4401": " warned",
    "4402": " summer",
    "4403": " Where",
    "4404": " above",
    "4405": " brick",
    "4406": "ected",
    "4407": " cudd",
    "4408": " problems",
    "4409": "amber",
    "4410": " chasing",
    "4411": " label",
    "4412": " apron",
    "4413": " sent",
    "4414": "urnit",
    "4415": "urniture",
    "4416": " lawy",
    "4417": " lid",
    "4418": "uggage",
    "4419": "med",
    "4420": " respectful",
    "4421": " furniture",
    "4422": " frowned",
    "4423": " zoomed",
    "4424": " pages",
    "4425": " prevent",
    "4426": " bent",
    "4427": " luggage",
    "4428": " mistakes",
    "4429": " sunset",
    "4430": " ostrich",
    "4431": "ison",
    "4432": " suggested",
    "4433": " windows",
    "4434": "ations",
    "4435": " jail",
    "4436": "low",
    "4437": " wine",
    "4438": " ribbon",
    "4439": " older",
    "4440": " shouts",
    "4441": " grape",
    "4442": " Cl",
    "4443": " wigg",
    "4444": " Co",
    "4445": "ucture",
    "4446": " structure",
    "4447": " spoil",
    "4448": "eor",
    "4449": " fixing",
    "4450": " chamber",
    "4451": " lions",
    "4452": " delay",
    "4453": " finds",
    "4454": " handed",
    "4455": " searching",
    "4456": " unite",
    "4457": "Did",
    "4458": " fought",
    "4459": " lawyer",
    "4460": " brightly",
    "4461": " pair",
    "4462": " meeting",
    "4463": " choice",
    "4464": " surprises",
    "4465": " Ellie",
    "4466": " art",
    "4467": " Un",
    "4468": "Ch",
    "4469": " favour",
    "4470": "eterin",
    "4471": "eterinarian",
    "4472": "adium",
    "4473": " stadium",
    "4474": " proudly",
    "4475": "iki",
    "4476": " veterinarian",
    "4477": "vet",
    "4478": "rod",
    "4479": " chairs",
    "4480": " slip",
    "4481": " Spe",
    "4482": " sadly",
    "4483": " Bow",
    "4484": " incre",
    "4485": " Carl",
    "4486": " puddles",
    "4487": " berry",
    "4488": " introd",
    "4489": " ranch",
    "4490": "veal",
    "4491": " Boun",
    "4492": " argue",
    "4493": " V",
    "4494": " admired",
    "4495": " cur",
    "4496": " favourite",
    "4497": "Your",
    "4498": " inf",
    "4499": " excitedly",
    "4500": " rac",
    "4501": " grabs",
    "4502": "mend",
    "4503": " steam",
    "4504": "thank",
    "4505": " human",
    "4506": "eorge",
    "4507": "sity",
    "4508": " Hel",
    "4509": " pushing",
    "4510": " saving",
    "4511": " Red",
    "4512": " reveal",
    "4513": "ommend",
    "4514": "alley",
    "4515": " yield",
    "4516": "olog",
    "4517": " mall",
    "4518": " reminded",
    "4519": " recommend",
    "4520": " leak",
    "4521": " surrender",
    "4522": " harb",
    "4523": " appl",
    "4524": "cuss",
    "4525": "aul",
    "4526": " weap",
    "4527": " regret",
    "4528": " putting",
    "4529": " valley",
    "4530": " mineral",
    "4531": " evening",
    "4532": "elcome",
    "4533": " matches",
    "4534": " forgave",
    "4535": " sneezed",
    "4536": " pup",
    "4537": " aw",
    "4538": " rushed",
    "4539": "ecause",
    "4540": " spade",
    "4541": " apolog",
    "4542": " plates",
    "4543": " discuss",
    "4544": " prepare",
    "4545": " harbor",
    "4546": " ignore",
    "4547": " Big",
    "4548": " country",
    "4549": " language",
    "4550": " Buzzy",
    "4551": " pulls",
    "4552": " plastic",
    "4553": " supply",
    "4554": " float",
    "4555": " sniffed",
    "4556": " Jazz",
    "4557": " replace",
    "4558": " meas",
    "4559": " shovel",
    "4560": " Bill",
    "4561": " raise",
    "4562": " Next",
    "4563": " fre",
    "4564": " cared",
    "4565": " socks",
    "4566": " strip",
    "4567": " doors",
    "4568": " mystery",
    "4569": " lives",
    "4570": " restore",
    "4571": " sticker",
    "4572": " sudden",
    "4573": "ari",
    "4574": " kinds",
    "4575": " slippery",
    "4576": "ero",
    "4577": " Ow",
    "4578": " player",
    "4579": " panic",
    "4580": "ricane",
    "4581": " hoping",
    "4582": "iday",
    "4583": " shone",
    "4584": "lex",
    "4585": "hero",
    "4586": " beg",
    "4587": " Mike",
    "4588": " Binky",
    "4589": " superhero",
    "4590": " delighted",
    "4591": " gro",
    "4592": "Yay",
    "4593": "aud",
    "4594": "chan",
    "4595": " chickens",
    "4596": " shoulder",
    "4597": " rained",
    "4598": " colourful",
    "4599": " breat",
    "4600": " Alice",
    "4601": " claw",
    "4602": " Bubbles",
    "4603": "Yuck",
    "4604": " softly",
    "4605": "rise",
    "4606": " port",
    "4607": "Grandma",
    "4608": " hol",
    "4609": "icer",
    "4610": " holiday",
    "4611": "oof",
    "4612": " \ufffd",
    "4613": " barks",
    "4614": "ason",
    "4615": " throwing",
    "4616": " planes",
    "4617": "Mary",
    "4618": " bend",
    "4619": " Freddy",
    "4620": " shakes",
    "4621": " infant",
    "4622": " ended",
    "4623": " shivering",
    "4624": " kneel",
    "4625": " sunrise",
    "4626": " pushes",
    "4627": " Olive",
    "4628": " thanks",
    "4629": " fresh",
    "4630": " suffer",
    "4631": " points",
    "4632": "imed",
    "4633": "wards",
    "4634": " Pat",
    "4635": " tip",
    "4636": " Speedy",
    "4637": " freeze",
    "4638": " keeping",
    "4639": " Would",
    "4640": " giggle",
    "4641": " copper",
    "4642": " smells",
    "4643": " dear",
    "4644": " enter",
    "4645": " provide",
    "4646": "cast",
    "4647": "chanic",
    "4648": " dishes",
    "4649": " End",
    "4650": "cond",
    "4651": " unh",
    "4652": "Next",
    "4653": " applaud",
    "4654": " heads",
    "4655": " hurricane",
    "4656": " cherry",
    "4657": " thumb",
    "4658": " menu",
    "4659": " meowed",
    "4660": " mass",
    "4661": " second",
    "4662": " brighter",
    "4663": "ince",
    "4664": " sandcast",
    "4665": " mechanic",
    "4666": " wre",
    "4667": " sprayed",
    "4668": " letting",
    "4669": " event",
    "4670": " weapon",
    "4671": " laught",
    "4672": " x",
    "4673": " laughter",
    "4674": " clapping",
    "4675": " feelings",
    "4676": "Will",
    "4677": "icky",
    "4678": " splashing",
    "4679": "ement",
    "4680": " Or",
    "4681": "acked",
    "4682": " castles",
    "4683": " Fl",
    "4684": "cer",
    "4685": " score",
    "4686": "apping",
    "4687": " universe",
    "4688": " navy",
    "4689": " dem",
    "4690": " sticky",
    "4691": "ophie",
    "4692": " rooms",
    "4693": " row",
    "4694": " flies",
    "4695": "igi",
    "4696": " Dave",
    "4697": " unhappy",
    "4698": " greedy",
    "4699": " dare",
    "4700": " alive",
    "4701": " breaks",
    "4702": " ener",
    "4703": " courage",
    "4704": " invit",
    "4705": "Ready",
    "4706": " repeat",
    "4707": " demand",
    "4708": " trusted",
    "4709": "Lisa",
    "4710": " somewhere",
    "4711": "arlie",
    "4712": " prune",
    "4713": "bles",
    "4714": " wreck",
    "4715": " Y",
    "4716": " skill",
    "4717": " examine",
    "4718": " parts",
    "4719": "year",
    "4720": " eaten",
    "4721": "oe",
    "4722": "All",
    "4723": "erc",
    "4724": "enry",
    "4725": " mention",
    "4726": " raining",
    "4727": " Help",
    "4728": "Buddy",
    "4729": " throws",
    "4730": " jogged",
    "4731": "quest",
    "4732": " starting",
    "4733": " rush",
    "4734": " poison",
    "4735": " pirates",
    "4736": "heart",
    "4737": " vac",
    "4738": " content",
    "4739": "Emma",
    "4740": " Kiki",
    "4741": " sigh",
    "4742": " flapped",
    "4743": " drops",
    "4744": " chirp",
    "4745": " sport",
    "4746": "Qu",
    "4747": " sparkled",
    "4748": " Zoomy",
    "4749": " given",
    "4750": " streng",
    "4751": " steel",
    "4752": "Ann",
    "4753": " bumped",
    "4754": " yawned",
    "4755": " stud",
    "4756": " request",
    "4757": " scold",
    "4758": " myself",
    "4759": " strength",
    "4760": " shrugged",
    "4761": "Mark",
    "4762": " coats",
    "4763": " punish",
    "4764": " equ",
    "4765": " snugg",
    "4766": " university",
    "4767": " paid",
    "4768": " Johnny",
    "4769": " pigs",
    "4770": " scratch",
    "4771": " toe",
    "4772": " exerc",
    "4773": " tracks",
    "4774": " upstairs",
    "4775": " prayed",
    "4776": " crossed",
    "4777": " squeezed",
    "4778": " impressed",
    "4779": " flood",
    "4780": " bouncing",
    "4781": " Ru",
    "4782": "Alice",
    "4783": " rabbits",
    "4784": "ges",
    "4785": " badly",
    "4786": "..",
    "4787": " warn",
    "4788": " leather",
    "4789": " expect",
    "4790": " news",
    "4791": " tide",
    "4792": " Ted",
    "4793": " minute",
    "4794": " bears",
    "4795": " claws",
    "4796": " buzz",
    "4797": " sweetheart",
    "4798": " Sm",
    "4799": "yth",
    "4800": " nation",
    "4801": "Sh",
    "4802": "ythm",
    "4803": " vacation",
    "4804": " hist",
    "4805": " heat",
    "4806": " strawberries",
    "4807": " observe",
    "4808": " explored",
    "4809": " settle",
    "4810": " sandcastle",
    "4811": " yawn",
    "4812": " history",
    "4813": " Lilly",
    "4814": " Lola",
    "4815": "mare",
    "4816": " Mummy",
    "4817": " Sque",
    "4818": "ially",
    "4819": "inking",
    "4820": " believed",
    "4821": " horses",
    "4822": "Daddy",
    "4823": " Hoppy",
    "4824": " checked",
    "4825": " Mandy",
    "4826": " tour",
    "4827": " network",
    "4828": " cheek",
    "4829": " Under",
    "4830": " offer",
    "4831": " easily",
    "4832": " placed",
    "4833": "spec",
    "4834": " spots",
    "4835": " snowball",
    "4836": "ween",
    "4837": "men",
    "4838": " energy",
    "4839": " Bee",
    "4840": " imagination",
    "4841": " blueberry",
    "4842": "otten",
    "4843": " between",
    "4844": "specially",
    "4845": " Gigi",
    "4846": "izes",
    "4847": " daisy",
    "4848": " waving",
    "4849": "reeze",
    "4850": "reat",
    "4851": " vroom",
    "4852": " soak",
    "4853": " safari",
    "4854": " rhythm",
    "4855": " massage",
    "4856": " stomach",
    "4857": " baking",
    "4858": "quake",
    "4859": " nightmare",
    "4860": " insisted",
    "4861": " blowing",
    "4862": " entered",
    "4863": "Before",
    "4864": " stair",
    "4865": " palm",
    "4866": " beauty",
    "4867": " twisted",
    "4868": " bother",
    "4869": " writing",
    "4870": " scoop",
    "4871": " prunes",
    "4872": " brain",
    "4873": " ing",
    "4874": "ipment",
    "4875": " poppy",
    "4876": " hills",
    "4877": "noon",
    "4878": " afternoon",
    "4879": " equipment",
    "4880": " especially",
    "4881": "hest",
    "4882": " sir",
    "4883": " pad",
    "4884": " See",
    "4885": " ingred",
    "4886": " Fox",
    "4887": " calls",
    "4888": " ingredient",
    "4889": " earthquake",
    "4890": " ignored",
    "4891": " Snowy",
    "4892": " burned",
    "4893": " nobody",
    "4894": "mble",
    "4895": " sty",
    "4896": "apa",
    "4897": " sew",
    "4898": " tug",
    "4899": "isty",
    "4900": "xygen",
    "4901": " hearts",
    "4902": " lear",
    "4903": " learnt",
    "4904": " lemonade",
    "4905": " increase",
    "4906": "illie",
    "4907": "Jenny",
    "4908": " gaz",
    "4909": " backpack",
    "4910": " mailman",
    "4911": " whistled",
    "4912": " pedal",
    "4913": " Sk",
    "4914": "Fred",
    "4915": " shopkeeper",
    "4916": "ffic",
    "4917": " permit",
    "4918": " tremble",
    "4919": " yucky",
    "4920": "anges",
    "4921": " moves",
    "4922": " introduce",
    "4923": " lemons",
    "4924": " crash",
    "4925": " beans",
    "4926": " floated",
    "4927": "edn",
    "4928": "ednesday",
    "4929": "ittens",
    "4930": "Welcome",
    "4931": " planned",
    "4932": " strike",
    "4933": " traffic",
    "4934": " include",
    "4935": " slap",
    "4936": " racing",
    "4937": " Lucky",
    "4938": "resses",
    "4939": " wisdom",
    "4940": " pur",
    "4941": " wags",
    "4942": " Finny",
    "4943": "laimed",
    "4944": " George",
    "4945": " luck",
    "4946": " following",
    "4947": " price",
    "4948": "ecting",
    "4949": " mama",
    "4950": " pitch",
    "4951": " below",
    "4952": " Elly",
    "4953": " Have",
    "4954": "Le",
    "4955": " weight",
    "4956": " exclaimed",
    "4957": "house",
    "4958": " buried",
    "4959": " follows",
    "4960": " comf",
    "4961": " recognize",
    "4962": " ingredients",
    "4963": " furt",
    "4964": "tain",
    "4965": " candles",
    "4966": "Mimi",
    "4967": " marbles",
    "4968": "riage",
    "4969": "unday",
    "4970": "emember",
    "4971": "eration",
    "4972": " Alex",
    "4973": " apart",
    "4974": " Wednesday",
    "4975": " growled",
    "4976": "uct",
    "4977": " Su",
    "4978": "ores",
    "4979": " conf",
    "4980": " teaching",
    "4981": " hopes",
    "4982": " folded",
    "4983": " closely",
    "4984": " Finn",
    "4985": " Who",
    "4986": " heel",
    "4987": " Sunday",
    "4988": " encourage",
    "4989": " Paul",
    "4990": " Owl",
    "4991": " zigzag",
    "4992": " pulling",
    "4993": " digg",
    "4994": " bouncy",
    "4995": " further",
    "4996": " chewed",
    "4997": " digging",
    "4998": " winning",
    "4999": "Woof",
    "5000": "With",
    "5001": " dresses",
    "5002": " image",
    "5003": "rec",
    "5004": "cery",
    "5005": " shouting",
    "5006": " grocery",
    "5007": " twisty",
    "5008": " peanuts",
    "5009": " puzzles",
    "5010": "bbing",
    "5011": " Dog",
    "5012": "look",
    "5013": " scrat",
    "5014": " chores",
    "5015": " whisper",
    "5016": " Is",
    "5017": " spike",
    "5018": " Froggy",
    "5019": " cape",
    "5020": " snail",
    "5021": " acorns",
    "5022": " worms",
    "5023": "hood",
    "5024": " deeper",
    "5025": " urge",
    "5026": "ifi",
    "5027": " exper",
    "5028": " Whenever",
    "5029": " Tilly",
    "5030": " Squeaky",
    "5031": " Grace",
    "5032": " planted",
    "5033": " attention",
    "5034": "ecture",
    "5035": " exercise",
    "5036": " Danny",
    "5037": " cub",
    "5038": " operation",
    "5039": " underground",
    "5040": " hon",
    "5041": " agre",
    "5042": " quite",
    "5043": " creatures",
    "5044": " simp",
    "5045": "Everyone",
    "5046": " struggle",
    "5047": "oral",
    "5048": " Mittens",
    "5049": "ddy",
    "5050": " blood",
    "5051": " lecture",
    "5052": " washing",
    "5053": " hurting",
    "5054": " vanished",
    "5055": " gifts",
    "5056": " dressed",
    "5057": " invitation",
    "5058": " solved",
    "5059": " licks",
    "5060": " snuggled",
    "5061": " Sharing",
    "5062": "ippy",
    "5063": " ble",
    "5064": " marriage",
    "5065": " quietly",
    "5066": "gie",
    "5067": " warning",
    "5068": " jazz",
    "5069": " breathe",
    "5070": "reci",
    "5071": " elephants",
    "5072": " sizes",
    "5073": " dried",
    "5074": " fallen",
    "5075": " landscape",
    "5076": "ories",
    "5077": " sprink",
    "5078": " neighbour",
    "5079": " mice",
    "5080": "uesday",
    "5081": " appreci",
    "5082": " Sophie",
    "5083": " Joey",
    "5084": " \u2013",
    "5085": " eagerly",
    "5086": " sailing",
    "5087": " Coco",
    "5088": " paused",
    "5089": "ips",
    "5090": " counter",
    "5091": " Good",
    "5092": " Bounce",
    "5093": " Penny",
    "5094": " worth",
    "5095": "looking",
    "5096": " Rock",
    "5097": " oxygen",
    "5098": "Because",
    "5099": " release",
    "5100": " shined",
    "5101": "Not",
    "5102": "pted",
    "5103": " reaches",
    "5104": " balan",
    "5105": " Zara",
    "5106": "isses",
    "5107": " oh",
    "5108": " kisses",
    "5109": " style",
    "5110": " bricks",
    "5111": " plays",
    "5112": " glo",
    "5113": " Tuesday",
    "5114": " ideas",
    "5115": "sed",
    "5116": " inst",
    "5117": " wob",
    "5118": " fireworks",
    "5119": "Bella",
    "5120": "iggly",
    "5121": "ucked",
    "5122": " seeing",
    "5123": " flap",
    "5124": " accepted",
    "5125": "right",
    "5126": " Pip",
    "5127": "Today",
    "5128": " blink",
    "5129": "mm",
    "5130": " Ros",
    "5131": " tremb",
    "5132": "These",
    "5133": " muddy",
    "5134": " memory",
    "5135": " married",
    "5136": " tomatoes",
    "5137": " exit",
    "5138": " Annie",
    "5139": "ops",
    "5140": " wagging",
    "5141": " fash",
    "5142": "Remy",
    "5143": " Charlie",
    "5144": " wandered",
    "5145": "unately",
    "5146": "ipping",
    "5147": " gloves",
    "5148": " captain",
    "5149": " pillows",
    "5150": " receive",
    "5151": " resp",
    "5152": " Pinky",
    "5153": "raged",
    "5154": " during",
    "5155": " Everything",
    "5156": "etch",
    "5157": " web",
    "5158": " petals",
    "5159": " watered",
    "5160": " Eventually",
    "5161": "ived",
    "5162": " manage",
    "5163": " pinched",
    "5164": " brings",
    "5165": " vanish",
    "5166": " cakes",
    "5167": " fashion",
    "5168": " Bluey",
    "5169": " printer",
    "5170": " destroyed",
    "5171": " treasures",
    "5172": "nce",
    "5173": " allow",
    "5174": "ups",
    "5175": " hadn",
    "5176": " worse",
    "5177": " Fifi",
    "5178": "Surpr",
    "5179": " vel",
    "5180": " hits",
    "5181": " bur",
    "5182": "xu",
    "5183": " velvet",
    "5184": " appear",
    "5185": " disagree",
    "5186": "do",
    "5187": " catching",
    "5188": " scattered",
    "5189": " Ro",
    "5190": " memories",
    "5191": " sorts",
    "5192": " Papa",
    "5193": " hers",
    "5194": " scolded",
    "5195": " signs",
    "5196": " pears",
    "5197": " oranges",
    "5198": " bones",
    "5199": " rang",
    "5200": " snapped",
    "5201": " sits",
    "5202": " seats",
    "5203": "uxu",
    "5204": " gazed",
    "5205": " raised",
    "5206": "Bl",
    "5207": " si",
    "5208": " Maria",
    "5209": " zipped",
    "5210": " pies",
    "5211": " prints",
    "5212": " shot",
    "5213": " sliding",
    "5214": " God",
    "5215": " fro",
    "5216": " easier",
    "5217": "ssible",
    "5218": " skills",
    "5219": " climbs",
    "5220": " twirled",
    "5221": "ccer",
    "5222": " blankets",
    "5223": " forgotten",
    "5224": " baked",
    "5225": "ester",
    "5226": "Yum",
    "5227": "esterday",
    "5228": " difference",
    "5229": "orted",
    "5230": " luxu",
    "5231": " golden",
    "5232": "ising",
    "5233": " kitty",
    "5234": " Tw",
    "5235": " cutting",
    "5236": " season",
    "5237": "aggie",
    "5238": " nowhere",
    "5239": " crow",
    "5240": "ah",
    "5241": " soccer",
    "5242": " dared",
    "5243": " bites",
    "5244": " Henry",
    "5245": " Harry",
    "5246": "anny",
    "5247": " lung",
    "5248": " celebrated",
    "5249": "choo",
    "5250": "chie",
    "5251": " straight",
    "5252": " unlocked",
    "5253": "sters",
    "5254": " sorting",
    "5255": " collected",
    "5256": " bleed",
    "5257": "aped",
    "5258": "ding",
    "5259": " welcomed",
    "5260": " visited",
    "5261": " spoons",
    "5262": " ours",
    "5263": " stitch",
    "5264": " jogging",
    "5265": "Surprise",
    "5266": "medi",
    "5267": " emer",
    "5268": " Spark",
    "5269": "mediately",
    "5270": " isn",
    "5271": " tong",
    "5272": " trave",
    "5273": " winner",
    "5274": "umble",
    "5275": " since",
    "5276": " ruin",
    "5277": " prett",
    "5278": "Ok",
    "5279": "Moral",
    "5280": " Tony",
    "5281": " attached",
    "5282": " weeping",
    "5283": " marching",
    "5284": " luxury",
    "5285": " simple",
    "5286": " Each",
    "5287": " shouldn",
    "5288": " guessed",
    "5289": " zero",
    "5290": " created",
    "5291": " stuffed",
    "5292": " pets",
    "5293": "ction",
    "5294": " waist",
    "5295": " famil",
    "5296": " urged",
    "5297": " bowed",
    "5298": " selling",
    "5299": " floating",
    "5300": "rr",
    "5301": " Smith",
    "5302": " bye",
    "5303": " King",
    "5304": " vict",
    "5305": " kingdom",
    "5306": " olives",
    "5307": " kicking",
    "5308": " Wiggly",
    "5309": " punished",
    "5310": " Liz",
    "5311": " Baby",
    "5312": "sit",
    "5313": " toes",
    "5314": " grant",
    "5315": " muscles",
    "5316": " jewels",
    "5317": " Rosie",
    "5318": " beds",
    "5319": " melted",
    "5320": "Goodbye",
    "5321": " slice",
    "5322": " grin",
    "5323": " understanding",
    "5324": " collection",
    "5325": " tore",
    "5326": " measured",
    "5327": "aker",
    "5328": " cras",
    "5329": "omeday",
    "5330": "iers",
    "5331": " trapped",
    "5332": " lined",
    "5333": "'ve",
    "5334": " acted",
    "5335": "fortunately",
    "5336": " encouraged",
    "5337": "va",
    "5338": " Sandy",
    "5339": " received",
    "5340": " waffles",
    "5341": " Before",
    "5342": " Wally",
    "5343": " west",
    "5344": " meow",
    "5345": "ents",
    "5346": " patterns",
    "5347": "rin",
    "5348": "ino",
    "5349": " brus",
    "5350": "eath",
    "5351": " mouths",
    "5352": "kins",
    "5353": " bang",
    "5354": "ring",
    "5355": " Kate",
    "5356": "Meow",
    "5357": " peaches",
    "5358": " breeze",
    "5359": "aded",
    "5360": "une",
    "5361": " printed",
    "5362": " soldiers",
    "5363": " someday",
    "5364": " potatoes",
    "5365": " pupil",
    "5366": "umes",
    "5367": " Millie",
    "5368": " drinks",
    "5369": " shed",
    "5370": " experience",
    "5371": " Tuna",
    "5372": " presents",
    "5373": " firef",
    "5374": " Ruby",
    "5375": " surround",
    "5376": " none",
    "5377": "osed",
    "5378": " voices",
    "5379": "eep",
    "5380": " drinking",
    "5381": " Uncle",
    "5382": "ishing",
    "5383": " relaxed",
    "5384": " victory",
    "5385": "cus",
    "5386": " paints",
    "5387": " breaking",
    "5388": "eve",
    "5389": " hurried",
    "5390": "ission",
    "5391": " twink",
    "5392": " tongue",
    "5393": " costumes",
    "5394": " flat",
    "5395": " mentioned",
    "5396": " begged",
    "5397": " teasing",
    "5398": " whistling",
    "5399": " fetch",
    "5400": " permission",
    "5401": " sip",
    "5402": " disagreed",
    "5403": " pearl",
    "5404": " six",
    "5405": "akes",
    "5406": " stro",
    "5407": "vest",
    "5408": " These",
    "5409": " esc",
    "5410": " appro",
    "5411": " skipping",
    "5412": " fishing",
    "5413": " May",
    "5414": "Leo",
    "5415": " highest",
    "5416": " pra",
    "5417": " watches",
    "5418": " sorted",
    "5419": " ringing",
    "5420": "ship",
    "5421": " tonight",
    "5422": " Bo",
    "5423": " opin",
    "5424": " lets",
    "5425": "icing",
    "5426": " Qu",
    "5427": " perfectly",
    "5428": " shadows",
    "5429": " immediately",
    "5430": " herbs",
    "5431": " warmth",
    "5432": " spit",
    "5433": " remained",
    "5434": "ther",
    "5435": " Its",
    "5436": "walk",
    "5437": "Bobby",
    "5438": "irring",
    "5439": "Jen",
    "5440": " sneak",
    "5441": " lips",
    "5442": " kneeled",
    "5443": "Blue",
    "5444": " contest",
    "5445": " Che",
    "5446": "utter",
    "5447": " cartoons",
    "5448": " sidewalk",
    "5449": " colours",
    "5450": " stamps",
    "5451": " ago",
    "5452": "Ha",
    "5453": " Toto",
    "5454": " Boo",
    "5455": " Follow",
    "5456": " east",
    "5457": " headed",
    "5458": "oved",
    "5459": "\",",
    "5460": " strang",
    "5461": " ladyb",
    "5462": " fed",
    "5463": " supposed",
    "5464": " roots",
    "5465": " lick",
    "5466": " crunch",
    "5467": " mixing",
    "5468": " works",
    "5469": " decorations",
    "5470": " melting",
    "5471": " known",
    "5472": " emergen",
    "5473": "Mandy",
    "5474": " rested",
    "5475": " Ab",
    "5476": " lines",
    "5477": " Suzy",
    "5478": " lily",
    "5479": " Jul",
    "5480": " instr",
    "5481": " laid",
    "5482": " Gr",
    "5483": " succeeded",
    "5484": " cones",
    "5485": " wiggle",
    "5486": "ety",
    "5487": "sing",
    "5488": " shock",
    "5489": " setting",
    "5490": " Slow",
    "5491": " studied",
    "5492": " strangers",
    "5493": " Rocky",
    "5494": "Really",
    "5495": " twigs",
    "5496": " brid",
    "5497": " theirs",
    "5498": " Dr",
    "5499": " girls",
    "5500": "boo",
    "5501": "!\",",
    "5502": " screams",
    "5503": " lands",
    "5504": " ordered",
    "5505": " stirring",
    "5506": " moments",
    "5507": " fields",
    "5508": " alright",
    "5509": " stealing",
    "5510": "ded",
    "5511": "Andy",
    "5512": " rul",
    "5513": " bravely",
    "5514": "avid",
    "5515": " Both",
    "5516": " mister",
    "5517": "!'",
    "5518": " invest",
    "5519": " scratched",
    "5520": " playtime",
    "5521": " ripped",
    "5522": " investig",
    "5523": " tucked",
    "5524": " resting",
    "5525": " burning",
    "5526": "ishes",
    "5527": " Clara",
    "5528": " Chicky",
    "5529": " bridges",
    "5530": " text",
    "5531": " officer",
    "5532": "please",
    "5533": "Sammy",
    "5534": "Bird",
    "5535": "abies",
    "5536": " settled",
    "5537": " matched",
    "5538": " achie",
    "5539": " texture",
    "5540": "Happy",
    "5541": " waits",
    "5542": " turning",
    "5543": " Sky",
    "5544": "Peter",
    "5545": "ored",
    "5546": " trembling",
    "5547": "isten",
    "5548": " nails",
    "5549": "atie",
    "5550": " muffins",
    "5551": " Someone",
    "5552": "ids",
    "5553": " escaped",
    "5554": " James",
    "5555": " piles",
    "5556": " investigate",
    "5557": "osity",
    "5558": " broom",
    "5559": " ladybug",
    "5560": " sore",
    "5561": " Pepper",
    "5562": " appreciate",
    "5563": " admir",
    "5564": " threat",
    "5565": " babies",
    "5566": " silence",
    "5567": " sisters",
    "5568": " emergency",
    "5569": " area",
    "5570": "ides",
    "5571": " dads",
    "5572": " answers",
    "5573": " pupp",
    "5574": " keys",
    "5575": " chewing",
    "5576": " slapped",
    "5577": " wiz",
    "5578": " importance",
    "5579": "Boo",
    "5580": " served",
    "5581": " Hop",
    "5582": " safety",
    "5583": "izing",
    "5584": "Bu",
    "5585": "Would",
    "5586": " sparkle",
    "5587": " touching",
    "5588": " Later",
    "5589": " soared",
    "5590": "igail",
    "5591": " sings",
    "5592": " hen",
    "5593": "allen",
    "5594": "Ella",
    "5595": "bers",
    "5596": "antly",
    "5597": "Momo",
    "5598": " Dino",
    "5599": " keeps",
    "5600": " amazement",
    "5601": " challen",
    "5602": " twin",
    "5603": " hesit",
    "5604": " revealed",
    "5605": "anna",
    "5606": "achel",
    "5607": " item",
    "5608": " dire",
    "5609": " soaked",
    "5610": "zing",
    "5611": " writ",
    "5612": " foods",
    "5613": " rides",
    "5614": " dinosaurs",
    "5615": " recorded",
    "5616": " tickle",
    "5617": " inch",
    "5618": " Zigzag",
    "5619": " Me",
    "5620": " wizard",
    "5621": " vet",
    "5622": " trips",
    "5623": " glowed",
    "5624": " An",
    "5625": " Frog",
    "5626": "Mmm",
    "5627": " hi",
    "5628": " beamed",
    "5629": " quack",
    "5630": " curled",
    "5631": " hated",
    "5632": " wink",
    "5633": " shopping",
    "5634": " eats",
    "5635": "Eventually",
    "5636": " Bug",
    "5637": " praised",
    "5638": " wooden",
    "5639": " bringing",
    "5640": " mittens",
    "5641": " studying",
    "5642": " guy",
    "5643": " brushes",
    "5644": " spaceship",
    "5645": " gust",
    "5646": " crawling",
    "5647": " Something",
    "5648": "Cat",
    "5649": " ruler",
    "5650": " flav",
    "5651": " downstairs",
    "5652": " shooting",
    "5653": " tastes",
    "5654": " napping",
    "5655": " sprinkles",
    "5656": " marks",
    "5657": " cuddled",
    "5658": " dot",
    "5659": "hello",
    "5660": "plash",
    "5661": " fut",
    "5662": "ales",
    "5663": "aved",
    "5664": " future",
    "5665": " monsters",
    "5666": " collecting",
    "5667": " measuring",
    "5668": " Happy",
    "5669": "'.",
    "5670": " families",
    "5671": " Out",
    "5672": " First",
    "5673": " Mo",
    "5674": " thrill",
    "5675": " oat",
    "5676": "irts",
    "5677": " result",
    "5678": "Jake",
    "5679": " approached",
    "5680": " Rabbit",
    "5681": "act",
    "5682": " crunchy",
    "5683": "Un",
    "5684": " remem",
    "5685": " bleeding",
    "5686": " remembers",
    "5687": " nicer",
    "5688": " beat",
    "5689": " sneaky",
    "5690": " disturbed",
    "5691": " leader",
    "5692": " scaring",
    "5693": "Or",
    "5694": "hind",
    "5695": " peel",
    "5696": " Hope",
    "5697": " firemen",
    "5698": " neighborhood",
    "5699": " Star",
    "5700": " grey",
    "5701": " Not",
    "5702": " motion",
    "5703": " noon",
    "5704": " possible",
    "5705": "Emily",
    "5706": "Somet",
    "5707": " apologized",
    "5708": " weighed",
    "5709": "ues",
    "5710": " Did",
    "5711": " tickets",
    "5712": "Cl",
    "5713": " naps",
    "5714": " loose",
    "5715": " pride",
    "5716": " youth",
    "5717": " swims",
    "5718": "ped",
    "5719": " strings",
    "5720": " recognized",
    "5721": " siren",
    "5722": " poking",
    "5723": "fied",
    "5724": " Ho",
    "5725": "cious",
    "5726": "ha",
    "5727": "elvet",
    "5728": " tricked",
    "5729": " wonders",
    "5730": " gained",
    "5731": " wanting",
    "5732": " crashed",
    "5733": " obe",
    "5734": " seesaw",
    "5735": " worker",
    "5736": "unnies",
    "5737": "ls",
    "5738": "oming",
    "5739": " draws",
    "5740": " scooped",
    "5741": ".'",
    "5742": " zooming",
    "5743": " opinion",
    "5744": " yelling",
    "5745": " prepared",
    "5746": " grinned",
    "5747": " Slowly",
    "5748": " awe",
    "5749": " poems",
    "5750": " doggy",
    "5751": " acting",
    "5752": " Beep",
    "5753": " happiest",
    "5754": " chef",
    "5755": " sneaked",
    "5756": " respons",
    "5757": " eff",
    "5758": " Always",
    "5759": " Lizzy",
    "5760": " owned",
    "5761": " bunnies",
    "5762": " anytime",
    "5763": " struck",
    "5764": " pedals",
    "5765": "oys",
    "5766": " knelt",
    "5767": "ena",
    "5768": "Ollie",
    "5769": " secrets",
    "5770": " pause",
    "5771": " decorated",
    "5772": " horns",
    "5773": " agreement",
    "5774": " Squ",
    "5775": "ided",
    "5776": " frost",
    "5777": " tallest",
    "5778": " obey",
    "5779": "Remember",
    "5780": "riends",
    "5781": "ogo",
    "5782": " Stop",
    "5783": "Have",
    "5784": " decides",
    "5785": " Once",
    "5786": " behaved",
    "5787": " tugged",
    "5788": " sides",
    "5789": " woof",
    "5790": " slim",
    "5791": "zen",
    "5792": " goodnight",
    "5793": " keeper",
    "5794": " sparkling",
    "5795": " chirped",
    "5796": " precious",
    "5797": "mother",
    "5798": "lier",
    "5799": "ien",
    "5800": "Tr",
    "5801": " repeated",
    "5802": " claps",
    "5803": "indy",
    "5804": "affes",
    "5805": " snowballs",
    "5806": " contain",
    "5807": "ud",
    "5808": "rs",
    "5809": " Ray",
    "5810": " ourselves",
    "5811": "allow",
    "5812": " giraffes",
    "5813": " balancing",
    "5814": " kindly",
    "5815": " spending",
    "5816": " writes",
    "5817": "ays",
    "5818": "ppers",
    "5819": " Like",
    "5820": "omas",
    "5821": " prop",
    "5822": " hissed",
    "5823": "First",
    "5824": " frozen",
    "5825": " frosting",
    "5826": " effort",
    "5827": " buzzing",
    "5828": " struggled",
    "5829": " Steve",
    "5830": " admiring",
    "5831": " rele",
    "5832": "iggy",
    "5833": " sweeties",
    "5834": " Velvet",
    "5835": " slimy",
    "5836": " brushed",
    "5837": " bloomed",
    "5838": "Susie",
    "5839": " Am",
    "5840": " polished",
    "5841": " Zoe",
    "5842": "arth",
    "5843": "anted",
    "5844": " comfy",
    "5845": " boo",
    "5846": " staying",
    "5847": " rubbing",
    "5848": "Ducky",
    "5849": " rocking",
    "5850": " pockets",
    "5851": " thrilled",
    "5852": " beside",
    "5853": " comple",
    "5854": " Aunt",
    "5855": " Maggie",
    "5856": "Ah",
    "5857": " eight",
    "5858": "urry",
    "5859": "isdom",
    "5860": " machines",
    "5861": " earlier",
    "5862": " yesterday",
    "5863": " seems",
    "5864": " rust",
    "5865": " Keep",
    "5866": "Sp",
    "5867": " traveled",
    "5868": " folding",
    "5869": " boom",
    "5870": " cracked",
    "5871": "ities",
    "5872": " hugging",
    "5873": " radishes",
    "5874": " Stitch",
    "5875": " opening",
    "5876": " loving",
    "5877": " circus",
    "5878": " surrounded",
    "5879": " curiosity",
    "5880": " Rachel",
    "5881": " spraying",
    "5882": " demanded",
    "5883": "oh",
    "5884": " paintings",
    "5885": "amie",
    "5886": " Green",
    "5887": " removed",
    "5888": " gaze",
    "5889": " honk",
    "5890": " pebbles",
    "5891": " zookeeper",
    "5892": " hardly",
    "5893": " catches",
    "5894": "edding",
    "5895": " sting",
    "5896": " stripes",
    "5897": " powers",
    "5898": " loaded",
    "5899": " Pippa",
    "5900": "Sometimes",
    "5901": " splashes",
    "5902": " pots",
    "5903": " petted",
    "5904": " matching",
    "5905": " David",
    "5906": "Thanks",
    "5907": " toss",
    "5908": " stare",
    "5909": " belly",
    "5910": "Yummy",
    "5911": "ibb",
    "5912": " whatever",
    "5913": " apologize",
    "5914": " rocked",
    "5915": " comforted",
    "5916": " Bree",
    "5917": " decision",
    "5918": "ern",
    "5919": " ribbons",
    "5920": " Joy",
    "5921": " Birdie",
    "5922": " struggling",
    "5923": " expected",
    "5924": " deser",
    "5925": " steep",
    "5926": "wh",
    "5927": " protected",
    "5928": " neighbors",
    "5929": " smiley",
    "5930": " chases",
    "5931": "During",
    "5932": " granted",
    "5933": " crumb",
    "5934": " Mat",
    "5935": " purred",
    "5936": " diving",
    "5937": " sadness",
    "5938": "Whiskers",
    "5939": " organizing",
    "5940": "lowers",
    "5941": " eagle",
    "5942": " heroes",
    "5943": " dipped",
    "5944": " sunlight",
    "5945": " lied",
    "5946": " pastels",
    "5947": " Frank",
    "5948": "Ex",
    "5949": " safer",
    "5950": " roads",
    "5951": " scru",
    "5952": " argued",
    "5953": " Milly",
    "5954": " goals",
    "5955": " Water",
    "5956": " discovery",
    "5957": " Abigail",
    "5958": " villag",
    "5959": " peered",
    "5960": "Ro",
    "5961": " Bouncy",
    "5962": "use",
    "5963": "ana",
    "5964": "loe",
    "5965": " tim",
    "5966": " dragons",
    "5967": " buildings",
    "5968": " buckets",
    "5969": " parties",
    "5970": " beard",
    "5971": " wedding",
    "5972": "Rex",
    "5973": " flutter",
    "5974": " planets",
    "5975": " ann",
    "5976": " Robby",
    "5977": " polishing",
    "5978": " fasc",
    "5979": "ira",
    "5980": " released",
    "5981": " Chr",
    "5982": " crabs",
    "5983": " Gogo",
    "5984": " tails",
    "5985": " Watch",
    "5986": " sausages",
    "5987": " Ju",
    "5988": " argu",
    "5989": " contro",
    "5990": " bottles",
    "5991": " wiggled",
    "5992": " teased",
    "5993": "uke",
    "5994": " arguing",
    "5995": " sled",
    "5996": " dragged",
    "5997": " padd",
    "5998": " Car",
    "5999": " roaring",
    "6000": " clearing",
    "6001": " shirts",
    "6002": " movies",
    "6003": " gathering",
    "6004": " airpl",
    "6005": " wid",
    "6006": "joyed",
    "6007": " teaches",
    "6008": " spiders",
    "6009": " limes",
    "6010": " Remember",
    "6011": " Dare",
    "6012": " overjoyed",
    "6013": " actually",
    "6014": " sighs",
    "6015": " continue",
    "6016": " cuddle",
    "6017": " soaring",
    "6018": " smallest",
    "6019": " Jess",
    "6020": " drives",
    "6021": " sparkles",
    "6022": " rip",
    "6023": " situ",
    "6024": " cubes",
    "6025": " refres",
    "6026": " talent",
    "6027": " challenge",
    "6028": " Olly",
    "6029": " grandmother",
    "6030": " Splash",
    "6031": " pouring",
    "6032": "umm",
    "6033": " pretends",
    "6034": " fascin",
    "6035": " cuts",
    "6036": " quarreling",
    "6037": " peppers",
    "6038": " bank",
    "6039": "ten",
    "6040": " shivered",
    "6041": " mane",
    "6042": " dusty",
    "6043": "ley",
    "6044": " wondering",
    "6045": " villagers",
    "6046": " stretching",
    "6047": "njoy",
    "6048": "ib",
    "6049": " weeks",
    "6050": " wherever",
    "6051": " darker",
    "6052": "jam",
    "6053": "Tiny",
    "6054": "sses",
    "6055": " X",
    "6056": " rings",
    "6057": " onwards",
    "6058": " Katie",
    "6059": " united",
    "6060": "Achoo",
    "6061": " bead",
    "6062": " Everyday",
    "6063": " Being",
    "6064": " prettiest",
    "6065": "Johnny",
    "6066": " caut",
    "6067": " realize",
    "6068": " company",
    "6069": " penguins",
    "6070": "annah",
    "6071": "Luna",
    "6072": "Fr",
    "6073": " Spring",
    "6074": " bedtime",
    "6075": " completed",
    "6076": " Wisdom",
    "6077": " Leave",
    "6078": "\u201d.",
    "6079": " knights",
    "6080": " flags",
    "6081": " Je",
    "6082": " Because",
    "6083": " playroom",
    "6084": " Prin",
    "6085": " actions",
    "6086": " Zero",
    "6087": " learns",
    "6088": " gotten",
    "6089": " patience",
    "6090": "inda",
    "6091": "dam",
    "6092": " shrug",
    "6093": " kites",
    "6094": " responsible",
    "6095": " fears",
    "6096": " destination",
    "6097": " wires",
    "6098": " reply",
    "6099": " wrist",
    "6100": " dam",
    "6101": "aws",
    "6102": " packing",
    "6103": " mountains",
    "6104": " fault",
    "6105": " applauded",
    "6106": " scrubbed",
    "6107": " ma",
    "6108": " crept",
    "6109": " Ava",
    "6110": "Uh",
    "6111": " Earth",
    "6112": " satis",
    "6113": " third",
    "6114": " phot",
    "6115": " pencils",
    "6116": " wins",
    "6117": " sticking",
    "6118": " baker",
    "6119": " visiting",
    "6120": " wound",
    "6121": " uses",
    "6122": " peas",
    "6123": " reminder",
    "6124": " control",
    "6125": "ashed",
    "6126": "Grandpa",
    "6127": " joking",
    "6128": " awake",
    "6129": " instruct",
    "6130": " staring",
    "6131": " healed",
    "6132": " Put",
    "6133": " hitting",
    "6134": " Fish",
    "6135": " screaming",
    "6136": " begin",
    "6137": "Rob",
    "6138": "uckily",
    "6139": " Friends",
    "6140": " Moo",
    "6141": "icorn",
    "6142": " helmets",
    "6143": "enty",
    "6144": " unicorn",
    "6145": "ler",
    "6146": "seek",
    "6147": " towels",
    "6148": "Silly",
    "6149": " Lou",
    "6150": " chips",
    "6151": "ica",
    "6152": " creation",
    "6153": " wasted",
    "6154": "bie",
    "6155": "Mar",
    "6156": " Behind",
    "6157": "laire",
    "6158": " masks",
    "6159": " items",
    "6160": " forgi",
    "6161": " firefight",
    "6162": " outdo",
    "6163": " lollipops",
    "6164": "Watch",
    "6165": " heav",
    "6166": " guns",
    "6167": " died",
    "6168": " Hippy",
    "6169": " seas",
    "6170": " glitter",
    "6171": "uddles",
    "6172": " arrive",
    "6173": " weren",
    "6174": " stole",
    "6175": " scales",
    "6176": " perched",
    "6177": " accom",
    "6178": " logs",
    "6179": " achieve",
    "6180": "die",
    "6181": " practicing",
    "6182": "ining",
    "6183": " whose",
    "6184": "Stay",
    "6185": " pumpkins",
    "6186": " instructions",
    "6187": " swoop",
    "6188": " batteries",
    "6189": " candies",
    "6190": " agrees",
    "6191": " project",
    "6192": " snakes",
    "6193": " chirping",
    "6194": "Benny",
    "6195": " shelves",
    "6196": " protecting",
    "6197": " parked",
    "6198": " exact",
    "6199": " Cra",
    "6200": " patiently",
    "6201": " activ",
    "6202": " videos",
    "6203": " shoulders",
    "6204": " blows",
    "6205": "hee",
    "6206": "Fo",
    "6207": " promises",
    "6208": "go",
    "6209": " dent",
    "6210": "usan",
    "6211": "uest",
    "6212": "ners",
    "6213": "jamas",
    "6214": " examined",
    "6215": " airplane",
    "6216": "Doggy",
    "6217": " roses",
    "6218": " accompl",
    "6219": " tasks",
    "6220": "Dave",
    "6221": " Hoot",
    "6222": "Poppy",
    "6223": " Bop",
    "6224": "Bunny",
    "6225": " beads",
    "6226": " bowls",
    "6227": " crumbs",
    "6228": "zes",
    "6229": " listens",
    "6230": " Love",
    "6231": " Catty",
    "6232": " Brownie",
    "6233": "Pete",
    "6234": " Ol",
    "6235": " dolphins",
    "6236": " cough",
    "6237": " bunch",
    "6238": " guest",
    "6239": "cakes",
    "6240": " requested",
    "6241": " remote",
    "6242": " improved",
    "6243": "anta",
    "6244": " reaching",
    "6245": " brand",
    "6246": " Jan",
    "6247": "ayla",
    "6248": " alien",
    "6249": " Bye",
    "6250": "irm",
    "6251": " copy",
    "6252": " Sun",
    "6253": " cheering",
    "6254": " photos",
    "6255": " Julie",
    "6256": " Chew",
    "6257": "Bad",
    "6258": " Blink",
    "6259": "Time",
    "6260": " cans",
    "6261": " Cuddles",
    "6262": " timer",
    "6263": " By",
    "6264": " replaced",
    "6265": "athy",
    "6266": " workers",
    "6267": " stern",
    "6268": " Enjoy",
    "6269": "aster",
    "6270": " neither",
    "6271": "Mike",
    "6272": " passing",
    "6273": " misses",
    "6274": " curtains",
    "6275": " confl",
    "6276": "Chirpy",
    "6277": " rainbows",
    "6278": " rubs",
    "6279": "George",
    "6280": "uctantly",
    "6281": " rolls",
    "6282": " patted",
    "6283": "ilo",
    "6284": " pajamas",
    "6285": " outdoors",
    "6286": "esome",
    "6287": "dies",
    "6288": " complaining",
    "6289": " Squirrel",
    "6290": "  ",
    "6291": "Lola",
    "6292": "Run",
    "6293": " puppet",
    "6294": " Princess",
    "6295": " closes",
    "6296": " beneath",
    "6297": " lap",
    "6298": " drums",
    "6299": " tune",
    "6300": " Beth",
    "6301": " Mouse",
    "6302": " filling",
    "6303": "Miss",
    "6304": "angled",
    "6305": " refuse",
    "6306": " Sorry",
    "6307": " sweat",
    "6308": " faced",
    "6309": "...",
    "6310": " seven",
    "6311": " balanced",
    "6312": " rescued",
    "6313": "neath",
    "6314": "bl",
    "6315": " quacked",
    "6316": " Abby",
    "6317": "Paul",
    "6318": "istle",
    "6319": " awesome",
    "6320": " 1",
    "6321": " mission",
    "6322": " However",
    "6323": " guys",
    "6324": " conflict",
    "6325": " cautious",
    "6326": " vent",
    "6327": " observed",
    "6328": " cause",
    "6329": " introduc",
    "6330": " Thomas",
    "6331": " pastries",
    "6332": "nie",
    "6333": " Our",
    "6334": " exactly",
    "6335": " doctors",
    "6336": " rule",
    "6337": " becoming",
    "6338": " policeman",
    "6339": " mes",
    "6340": "uly",
    "6341": " rockets",
    "6342": "you",
    "6343": " Yes",
    "6344": " Dot",
    "6345": " fairies",
    "6346": "lay",
    "6347": " pout",
    "6348": "An",
    "6349": " insist",
    "6350": " blooming",
    "6351": " tractor",
    "6352": " farther",
    "6353": " Sad",
    "6354": "avi",
    "6355": "Oops",
    "6356": "Great",
    "6357": " remembering",
    "6358": " included",
    "6359": " curly",
    "6360": "Zoom",
    "6361": "Fine",
    "6362": " teamwork",
    "6363": "zie",
    "6364": " fascinated",
    "6365": " wobbled",
    "6366": " slam",
    "6367": " truly",
    "6368": " helpers",
    "6369": " sights",
    "6370": " paddle",
    "6371": " stumble",
    "6372": " firm",
    "6373": "Henry",
    "6374": " Jilly",
    "6375": "acob",
    "6376": " caused",
    "6377": " prayer",
    "6378": " spong",
    "6379": " recording",
    "6380": "kelly",
    "6381": "ais",
    "6382": " traded",
    "6383": " starfish",
    "6384": " supplies",
    "6385": " thro",
    "6386": " pointy",
    "6387": " situation",
    "6388": " inviting",
    "6389": "eah",
    "6390": "gers",
    "6391": " neighbourhood",
    "6392": " everyday",
    "6393": " ornaments",
    "6394": " Ally",
    "6395": "inkle",
    "6396": " valued",
    "6397": " adding",
    "6398": "Some",
    "6399": " reluctantly",
    "6400": " dots",
    "6401": " stays",
    "6402": " tables",
    "6403": " prettier",
    "6404": " bare",
    "6405": " desert",
    "6406": " snowmen",
    "6407": " steady",
    "6408": " minerals",
    "6409": "araway",
    "6410": " thorn",
    "6411": "ody",
    "6412": " ast",
    "6413": " glasses",
    "6414": " faraway",
    "6415": " Get",
    "6416": " Foxy",
    "6417": " swooped",
    "6418": " Welcome",
    "6419": " Two",
    "6420": " Sure",
    "6421": " unf",
    "6422": " forks",
    "6423": " usually",
    "6424": " usual",
    "6425": "Polly",
    "6426": " dar",
    "6427": " Jamie",
    "6428": " winked",
    "6429": " sneezing",
    "6430": " solut",
    "6431": " loading",
    "6432": " sponge",
    "6433": " Quick",
    "6434": " insects",
    "6435": " pans",
    "6436": "Dog",
    "6437": " sobbed",
    "6438": " Santa",
    "6439": "James",
    "6440": " growling",
    "6441": "sm",
    "6442": "arter",
    "6443": " throat",
    "6444": " Chloe",
    "6445": " noses",
    "6446": " Josh",
    "6447": " Dizzy",
    "6448": " scarves",
    "6449": " confident",
    "6450": " yourselves",
    "6451": " Want",
    "6452": "agull",
    "6453": " homework",
    "6454": " superheroes",
    "6455": " Stay",
    "6456": "Joey",
    "6457": " smarter",
    "6458": " windy",
    "6459": " librarian",
    "6460": "Tina",
    "6461": " Kids",
    "6462": " gems",
    "6463": "Days",
    "6464": "ora",
    "6465": " underneath",
    "6466": " kicks",
    "6467": " knowled",
    "6468": " itchy",
    "6469": " knowledge",
    "6470": " jackets",
    "6471": " Skelly",
    "6472": " For",
    "6473": " surface",
    "6474": " untie",
    "6475": " comm",
    "6476": " Duck",
    "6477": " princesses",
    "6478": "...\"",
    "6479": "Those",
    "6480": "ido",
    "6481": "eed",
    "6482": "Hold",
    "6483": "Yeah",
    "6484": "coon",
    "6485": " squares",
    "6486": " Henny",
    "6487": " warnings",
    "6488": " giggling",
    "6489": "iar",
    "6490": " reads",
    "6491": "vin",
    "6492": "Our",
    "6493": " choo",
    "6494": " younger",
    "6495": " clowns",
    "6496": " Mix",
    "6497": "Toby",
    "6498": "son",
    "6499": " ropes",
    "6500": " biting",
    "6501": " crowd",
    "6502": " Unfortunately",
    "6503": "pite",
    "6504": "Danny",
    "6505": "True",
    "6506": " seagull",
    "6507": " paddled",
    "6508": " wears",
    "6509": " delivered",
    "6510": " Mon",
    "6511": " twirl",
    "6512": " onions",
    "6513": " buzzed",
    "6514": " complained",
    "6515": " bumpy",
    "6516": " stem",
    "6517": "Ew",
    "6518": " piggy",
    "6519": "Mrs",
    "6520": " Anne",
    "6521": " direction",
    "6522": "ouch",
    "6523": " dived",
    "6524": "Roar",
    "6525": " tangled",
    "6526": " startled",
    "6527": "ults",
    "6528": " leaning",
    "6529": "bbie",
    "6530": " Ant",
    "6531": " Jones",
    "6532": " badge",
    "6533": " Po",
    "6534": "Grace",
    "6535": " unp",
    "6536": " deal",
    "6537": "though",
    "6538": "Annie",
    "6539": " vowed",
    "6540": " napkins",
    "6541": "anes",
    "6542": " tickled",
    "6543": " risk",
    "6544": " covers",
    "6545": " pec",
    "6546": "Shh",
    "6547": " yells",
    "6548": " satisfied",
    "6549": "int",
    "6550": " knocks",
    "6551": " refreshed",
    "6552": "tuce",
    "6553": " Sc",
    "6554": "cuse",
    "6555": " cous",
    "6556": " arrows",
    "6557": "Maggie",
    "6558": " Whistle",
    "6559": "Pe",
    "6560": " wipes",
    "6561": " speaking",
    "6562": " lettuce",
    "6563": " guessing",
    "6564": "Unfortunately",
    "6565": " Quack",
    "6566": " ripe",
    "6567": " Susan",
    "6568": " hides",
    "6569": " choices",
    "6570": " Dodo",
    "6571": " Rover",
    "6572": "Buzz",
    "6573": " signed",
    "6574": " slower",
    "6575": " seeker",
    "6576": " introduced",
    "6577": " singer",
    "6578": " creating",
    "6579": " Matt",
    "6580": " froze",
    "6581": " cent",
    "6582": "uggles",
    "6583": " joked",
    "6584": " squeal",
    "6585": " toaster",
    "6586": " explorers",
    "6587": " avo",
    "6588": "anging",
    "6589": "Sophie",
    "6590": " praying",
    "6591": " written",
    "6592": " discovering",
    "6593": " provided",
    "6594": " Dara",
    "6595": " refle",
    "6596": " Lion",
    "6597": "Excuse",
    "6598": " mushrooms",
    "6599": " Jeff",
    "6600": " Paws",
    "6601": " paying",
    "6602": " knees",
    "6603": "fit",
    "6604": "ences",
    "6605": " hider",
    "6606": " wandering",
    "6607": " Ash",
    "6608": " images",
    "6609": "Charlie",
    "6610": " stung",
    "6611": " Wink",
    "6612": " magnets",
    "6613": " barely",
    "6614": " behaving",
    "6615": " tipto",
    "6616": "?\",",
    "6617": " marked",
    "6618": "brush",
    "6619": "rrr",
    "6620": " restored",
    "6621": " Dee",
    "6622": " leading",
    "6623": "lled",
    "6624": " chuck",
    "6625": "ados",
    "6626": " nine",
    "6627": " greet",
    "6628": "Teddy",
    "6629": " gears",
    "6630": " bravery",
    "6631": " Snuggles",
    "6632": "ky",
    "6633": " competition",
    "6634": "eal",
    "6635": " outfit",
    "6636": "oline",
    "6637": " wishing",
    "6638": " properly",
    "6639": " ventured",
    "6640": "tle",
    "6641": "aa",
    "6642": " muscle",
    "6643": " dances",
    "6644": " chat",
    "6645": " salty",
    "6646": " pens",
    "6647": "amb",
    "6648": " Betsy",
    "6649": " ranger",
    "6650": " Ziggy",
    "6651": " deserve",
    "6652": " however",
    "6653": "sequ",
    "6654": " matters",
    "6655": " darkness",
    "6656": " burst",
    "6657": " Fu",
    "6658": " rainy",
    "6659": " cobwebs",
    "6660": " ruining",
    "6661": " chefs",
    "6662": " consequ",
    "6663": " blocking",
    "6664": " bak",
    "6665": "usted",
    "6666": "itely",
    "6667": "sty",
    "6668": " scur",
    "6669": " vines",
    "6670": " fab",
    "6671": "abel",
    "6672": " fabric",
    "6673": " entire",
    "6674": " basement",
    "6675": " performed",
    "6676": " least",
    "6677": " Buggy",
    "6678": "Sn",
    "6679": " scratches",
    "6680": " heavier",
    "6681": " Claire",
    "6682": " mints",
    "6683": " twirling",
    "6684": " avocados",
    "6685": "However",
    "6686": " Linda",
    "6687": "rink",
    "6688": "fl",
    "6689": " scurried",
    "6690": " losing",
    "6691": " sunflowers",
    "6692": " Jenna",
    "6693": " rainco",
    "6694": " swords",
    "6695": "Tweet",
    "6696": " click",
    "6697": "agic",
    "6698": " Laser",
    "6699": " silent",
    "6700": " jobs",
    "6701": " necklaces",
    "6702": " flames",
    "6703": " Luke",
    "6704": " relief",
    "6705": " Grumpy",
    "6706": " snat",
    "6707": " sewed",
    "6708": " rotting",
    "6709": "len",
    "6710": "Listen",
    "6711": "Follow",
    "6712": " tricky",
    "6713": "Jerry",
    "6714": " lighter",
    "6715": "ophia",
    "6716": " bows",
    "6717": " Skip",
    "6718": " exha",
    "6719": " solution",
    "6720": " consequences",
    "6721": "Alex",
    "6722": " Lena",
    "6723": " tires",
    "6724": " stain",
    "6725": " Pr",
    "6726": "Beep",
    "6727": " unpacked",
    "6728": "Ab",
    "6729": " partic",
    "6730": "rance",
    "6731": " races",
    "6732": " pins",
    "6733": " bumps",
    "6734": " wraps",
    "6735": "aisies",
    "6736": " wow",
    "6737": " decorating",
    "6738": " backed",
    "6739": "cher",
    "6740": " dentist",
    "6741": " purr",
    "6742": " needles",
    "6743": " cautiously",
    "6744": " lifting",
    "6745": "izzie",
    "6746": " accomplish",
    "6747": " triangles",
    "6748": " daisies",
    "6749": "ept",
    "6750": " hesitated",
    "6751": " annoy",
    "6752": " Those",
    "6753": " growls",
    "6754": " crackers",
    "6755": "oke",
    "6756": " stomped",
    "6757": " grabbing",
    "6758": " cott",
    "6759": " figured",
    "6760": " bodies",
    "6761": " mater",
    "6762": " buying",
    "6763": " Tree",
    "6764": " material",
    "6765": " Rolly",
    "6766": " Fido",
    "6767": " Adam",
    "6768": " swans",
    "6769": " ties",
    "6770": " gri",
    "6771": "vers",
    "6772": " grows",
    "6773": " \n ",
    "6774": " sweets",
    "6775": " Goodbye",
    "6776": " owners",
    "6777": " flavor",
    "6778": " cheeks",
    "6779": " Cathy",
    "6780": "Big",
    "6781": " suffering",
    "6782": " Jessie",
    "6783": " El",
    "6784": "vroom",
    "6785": " fact",
    "6786": " groups",
    "6787": "bly",
    "6788": " forehead",
    "6789": " lungs",
    "6790": "Harry",
    "6791": " repa",
    "6792": " interested",
    "6793": " bakery",
    "6794": " Milo",
    "6795": " freed",
    "6796": "Lilly",
    "6797": "itches",
    "6798": " Nothing",
    "6799": " chuckled",
    "6800": "For",
    "6801": " swept",
    "6802": " conn",
    "6803": "?'",
    "6804": " thud",
    "6805": " exhausted",
    "6806": "Tw",
    "6807": " twinkling",
    "6808": " tapped",
    "6809": "Ru",
    "6810": " nect",
    "6811": "rosty",
    "6812": " nectar",
    "6813": "elle",
    "6814": " feast",
    "6815": " darling",
    "6816": "indr",
    "6817": " Mad",
    "6818": " worries",
    "6819": " uns",
    "6820": " tunnels",
    "6821": " fuzzy",
    "6822": " repaired",
    "6823": " reason",
    "6824": " Trust",
    "6825": " Copper",
    "6826": " Ball",
    "6827": " activities",
    "6828": "lets",
    "6829": " pecked",
    "6830": " Hannah",
    "6831": " entrance",
    "6832": " Try",
    "6833": " raindr",
    "6834": " meals",
    "6835": " Listen",
    "6836": " particular",
    "6837": " completely",
    "6838": " mailed",
    "6839": "ctions",
    "6840": " nests",
    "6841": " waiter",
    "6842": " cuddly",
    "6843": " sense",
    "6844": " Nana",
    "6845": " colored",
    "6846": "arky",
    "6847": " leap",
    "6848": "step",
    "6849": "band",
    "6850": " plenty",
    "6851": " peeking",
    "6852": " slammed",
    "6853": " Cara",
    "6854": "no",
    "6855": " players",
    "6856": " month",
    "6857": " budge",
    "6858": " Birthday",
    "6859": " Q",
    "6860": " scra",
    "6861": " forgets",
    "6862": " den",
    "6863": " handful",
    "6864": " Oliver",
    "6865": " mer",
    "6866": "ossible",
    "6867": " genie",
    "6868": " Christ",
    "6869": " stool",
    "6870": "iggie",
    "6871": " talks",
    "6872": " Pup",
    "6873": " Suzie",
    "6874": " passports",
    "6875": " feeding",
    "6876": " films",
    "6877": " baths",
    "6878": " impossible",
    "6879": " determination",
    "6880": "May",
    "6881": " printing",
    "6882": "boat",
    "6883": " designed",
    "6884": " buses",
    "6885": " opp",
    "6886": "ueen",
    "6887": "lephant",
    "6888": " suitcase",
    "6889": " bars",
    "6890": " counts",
    "6891": " stolen",
    "6892": " spreading",
    "6893": " spikes",
    "6894": " Snap",
    "6895": " wiping",
    "6896": " steer",
    "6897": " lamb",
    "6898": " Rain",
    "6899": " honked",
    "6900": "etty",
    "6901": "nies",
    "6902": "Whee",
    "6903": " cowb",
    "6904": " separated",
    "6905": "blings",
    "6906": " siblings",
    "6907": " hops",
    "6908": " chop",
    "6909": " sewing",
    "6910": " fires",
    "6911": " Twinkle",
    "6912": " fever",
    "6913": " twinkle",
    "6914": " ty",
    "6915": " camping",
    "6916": " Mira",
    "6917": " lower",
    "6918": " changing",
    "6919": "yes",
    "6920": "retch",
    "6921": " behavi",
    "6922": " Bloom",
    "6923": "mas",
    "6924": " liqu",
    "6925": " celebration",
    "6926": "but",
    "6927": " squealed",
    "6928": " dollhouse",
    "6929": "Sunny",
    "6930": " backward",
    "6931": " age",
    "6932": " snatched",
    "6933": " cash",
    "6934": "ho",
    "6935": " twice",
    "6936": "lee",
    "6937": " sway",
    "6938": "itched",
    "6939": " celebrating",
    "6940": " Peanut",
    "6941": " shrinking",
    "6942": " ache",
    "6943": "weed",
    "6944": " kings",
    "6945": "rious",
    "6946": " shops",
    "6947": " kittens",
    "6948": "cope",
    "6949": "Rose",
    "6950": " Jessica",
    "6951": " Jacob",
    "6952": " Gina",
    "6953": "aura",
    "6954": " hus",
    "6955": " touches",
    "6956": "airy",
    "6957": " pancakes",
    "6958": " avoid",
    "6959": " spat",
    "6960": " Frosty",
    "6961": "rig",
    "6962": "hog",
    "6963": " Nina",
    "6964": " paths",
    "6965": "ives",
    "6966": "cky",
    "6967": " Hold",
    "6968": " rotten",
    "6969": " calmed",
    "6970": "Sandy",
    "6971": " seaweed",
    "6972": " dropping",
    "6973": " Jon",
    "6974": " Mel",
    "6975": "iles",
    "6976": "Pipp",
    "6977": " twisting",
    "6978": " stroked",
    "6979": " untied",
    "6980": "llen",
    "6981": " playhouse",
    "6982": "ne",
    "6983": "Millie",
    "6984": " students",
    "6985": " puppies",
    "6986": "cl",
    "6987": "hi",
    "6988": " screws",
    "6989": " astron",
    "6990": " Re",
    "6991": " somebody",
    "6992": "igning",
    "6993": " liquid",
    "6994": "ammy",
    "6995": " wakes",
    "6996": " squish",
    "6997": " Woof",
    "6998": " bracelets",
    "6999": " astronaut",
    "7000": "immer",
    "7001": "aren",
    "7002": " thrown",
    "7003": " loops",
    "7004": " Other",
    "7005": "Luckily",
    "7006": " wrapping",
    "7007": " plain",
    "7008": " tramp",
    "7009": " planning",
    "7010": " skunk",
    "7011": " aimed",
    "7012": " pennies",
    "7013": " shoo",
    "7014": " lifts",
    "7015": " dancers",
    "7016": " sparks",
    "7017": " firefly",
    "7018": "pen",
    "7019": "Dan",
    "7020": " poster",
    "7021": "yan",
    "7022": "endy",
    "7023": " cust",
    "7024": " Christmas",
    "7025": " rewarded",
    "7026": " objects",
    "7027": " directions",
    "7028": "using",
    "7029": "ingo",
    "7030": " reflection",
    "7031": " husband",
    "7032": "\u2014",
    "7033": "Take",
    "7034": "river",
    "7035": " clues",
    "7036": "uppy",
    "7037": " leads",
    "7038": " increased",
    "7039": " blocked",
    "7040": " rising",
    "7041": " dod",
    "7042": " cousin",
    "7043": " Yesterday",
    "7044": " Without",
    "7045": " forgetting",
    "7046": "rigued",
    "7047": " custom",
    "7048": "Kate",
    "7049": "ude",
    "7050": " trampoline",
    "7051": " beginning",
    "7052": " storekeeper",
    "7053": " pouted",
    "7054": " zebras",
    "7055": " hedgehog",
    "7056": " aff",
    "7057": " \u2018",
    "7058": " borrowed",
    "7059": " Rollie",
    "7060": " snowfl",
    "7061": " countryside",
    "7062": "Jump",
    "7063": " mesmer",
    "7064": " Jay",
    "7065": " vehicles",
    "7066": " instrum",
    "7067": " Mic",
    "7068": " Kayla",
    "7069": " Up",
    "7070": " frowning",
    "7071": "ivity",
    "7072": "Pat",
    "7073": "Under",
    "7074": " marker",
    "7075": "yond",
    "7076": " presses",
    "7077": " beyond",
    "7078": " Queen",
    "7079": " damage",
    "7080": " Only",
    "7081": "iece",
    "7082": "ivery",
    "7083": " fart",
    "7084": " Tara",
    "7085": " Biggie",
    "7086": "jo",
    "7087": " health",
    "7088": " whispers",
    "7089": " swimsuit",
    "7090": " slips",
    "7091": " nibb",
    "7092": " Julia",
    "7093": "armer",
    "7094": " warmer",
    "7095": " flapping",
    "7096": " tiptoed",
    "7097": " regretted",
    "7098": "itted",
    "7099": "Zip",
    "7100": " laying",
    "7101": " Robo",
    "7102": "ades",
    "7103": " yelp",
    "7104": " Fire",
    "7105": " rains",
    "7106": " glued",
    "7107": " everybody",
    "7108": " creations",
    "7109": " hearing",
    "7110": " swir",
    "7111": " colder",
    "7112": "iversity",
    "7113": "ael",
    "7114": " shaped",
    "7115": " Elephant",
    "7116": " streets",
    "7117": " fins",
    "7118": " rusty",
    "7119": " cushions",
    "7120": "Out",
    "7121": " san",
    "7122": " farthest",
    "7123": " creativity",
    "7124": " Mikey",
    "7125": " sale",
    "7126": "Always",
    "7127": "ans",
    "7128": " strongest",
    "7129": "ibbit",
    "7130": " fits",
    "7131": " Sparky",
    "7132": " bells",
    "7133": " dollars",
    "7134": " Larry",
    "7135": " earn",
    "7136": "iam",
    "7137": "angle",
    "7138": " lending",
    "7139": " Moon",
    "7140": " Chirp",
    "7141": "eese",
    "7142": " cashier",
    "7143": "Milly",
    "7144": " including",
    "7145": " sniffs",
    "7146": " sank",
    "7147": " raincoat",
    "7148": " Rich",
    "7149": " trembled",
    "7150": " stopping",
    "7151": " source",
    "7152": "iti",
    "7153": "imon",
    "7154": " Missy",
    "7155": " wobbly",
    "7156": " indeed",
    "7157": "ters",
    "7158": " guests",
    "7159": " single",
    "7160": " recommended",
    "7161": " spells",
    "7162": " accomplishment",
    "7163": " belts",
    "7164": " surprising",
    "7165": " ends",
    "7166": " hopeful",
    "7167": " seasons",
    "7168": " Take",
    "7169": " Snowman",
    "7170": " Els",
    "7171": "Bear",
    "7172": " plans",
    "7173": "ichael",
    "7174": " encourag",
    "7175": " supported",
    "7176": "stick",
    "7177": "illed",
    "7178": " suffered",
    "7179": " artist",
    "7180": " performance",
    "7181": "eet",
    "7182": "Nina",
    "7183": " slowed",
    "7184": " gross",
    "7185": " flavors",
    "7186": "iding",
    "7187": "ertain",
    "7188": " spins",
    "7189": "cho",
    "7190": "Quack",
    "7191": " labels",
    "7192": " raindrops",
    "7193": " delivery",
    "7194": "uing",
    "7195": "arac",
    "7196": " raccoon",
    "7197": " forgiving",
    "7198": "obody",
    "7199": " Woo",
    "7200": " pours",
    "7201": "the",
    "7202": "ility",
    "7203": " vanilla",
    "7204": " turtles",
    "7205": " stands",
    "7206": "Bill",
    "7207": "uess",
    "7208": " recipe",
    "7209": " beam",
    "7210": " tying",
    "7211": " Sw",
    "7212": " geese",
    "7213": " willing",
    "7214": " robber",
    "7215": " drawn",
    "7216": "Vroom",
    "7217": " wept",
    "7218": " Bones",
    "7219": " charac",
    "7220": " pops",
    "7221": " corners",
    "7222": " Sophia",
    "7223": "elia",
    "7224": " queens",
    "7225": " sailboat",
    "7226": " grip",
    "7227": " die",
    "7228": " drivers",
    "7229": "itude",
    "7230": " moo",
    "7231": " hallway",
    "7232": " imagining",
    "7233": " seconds",
    "7234": " Fuzzy",
    "7235": "Mine",
    "7236": " preparing",
    "7237": " widened",
    "7238": " adult",
    "7239": " Spirit",
    "7240": " grocer",
    "7241": " coop",
    "7242": " talented",
    "7243": " Pam",
    "7244": " Beaky",
    "7245": " Izzy",
    "7246": "ummies",
    "7247": " sailors",
    "7248": "lling",
    "7249": " softer",
    "7250": " aside",
    "7251": " watering",
    "7252": " sending",
    "7253": " knots",
    "7254": " unsure",
    "7255": " tipped",
    "7256": "Lulu",
    "7257": " treehouse",
    "7258": " horiz",
    "7259": " Lizzie",
    "7260": " notes",
    "7261": "Co",
    "7262": " echo",
    "7263": "igers",
    "7264": " achieved",
    "7265": " horizon",
    "7266": " squeak",
    "7267": " delivering",
    "7268": " pleasure",
    "7269": " hotter",
    "7270": " Stella",
    "7271": "Clara",
    "7272": " pupils",
    "7273": " burrow",
    "7274": " angels",
    "7275": " curiously",
    "7276": "Ellie",
    "7277": " yum",
    "7278": " blinking",
    "7279": " June",
    "7280": " tweet",
    "7281": " symbols",
    "7282": " det",
    "7283": " Stretch",
    "7284": "wk",
    "7285": " passen",
    "7286": " Rudy",
    "7287": " Cindy",
    "7288": " tummies",
    "7289": " tiss",
    "7290": " pigeons",
    "7291": " figures",
    "7292": "umbling",
    "7293": " bandages",
    "7294": " Robert",
    "7295": " coup",
    "7296": " Doctor",
    "7297": "oey",
    "7298": " robots",
    "7299": "alph",
    "7300": " tossed",
    "7301": " hour",
    "7302": " backwards",
    "7303": " roars",
    "7304": "Baby",
    "7305": " merma",
    "7306": "uzz",
    "7307": " rather",
    "7308": "atur",
    "7309": "Maria",
    "7310": "cited",
    "7311": " Play",
    "7312": " Crab",
    "7313": "Moo",
    "7314": "ighting",
    "7315": "Dolly",
    "7316": " groceries",
    "7317": " zipping",
    "7318": "Put",
    "7319": "Very",
    "7320": " unw",
    "7321": "prin",
    "7322": " among",
    "7323": " blown",
    "7324": " icing",
    "7325": "!\u201d.",
    "7326": " rumble",
    "7327": " afterwards",
    "7328": "ipper",
    "7329": " screwd",
    "7330": "ushing",
    "7331": " sped",
    "7332": " prove",
    "7333": " glee",
    "7334": " Titi",
    "7335": " Tia",
    "7336": " dip",
    "7337": " overcome",
    "7338": "Ruby",
    "7339": "Quick",
    "7340": " surfboard",
    "7341": " shovels",
    "7342": " slices",
    "7343": " Toot",
    "7344": " merry",
    "7345": " wobble",
    "7346": " mate",
    "7347": " Turt",
    "7348": " Abbie",
    "7349": " heading",
    "7350": " disturbing",
    "7351": " swall",
    "7352": " reversed",
    "7353": " firefighters",
    "7354": "Jul",
    "7355": " swallowed",
    "7356": " chip",
    "7357": "eds",
    "7358": " scored",
    "7359": " flipped",
    "7360": " Jump",
    "7361": " squeezing",
    "7362": "usty",
    "7363": "Frank",
    "7364": "aty",
    "7365": "Su",
    "7366": " waking",
    "7367": " intrigued",
    "7368": "Sad",
    "7369": "Like",
    "7370": " maker",
    "7371": " Barky",
    "7372": "awn",
    "7373": "Betty",
    "7374": " puff",
    "7375": " hawk",
    "7376": " Ex",
    "7377": " encouraging",
    "7378": " aud",
    "7379": "osen",
    "7380": "onies",
    "7381": " chosen",
    "7382": " Ron",
    "7383": "hew",
    "7384": " Farmer",
    "7385": " Ang",
    "7386": " couple",
    "7387": " designs",
    "7388": " slipping",
    "7389": " screwdriver",
    "7390": " squishy",
    "7391": " Emmy",
    "7392": " gardener",
    "7393": " center",
    "7394": " rivers",
    "7395": " respond",
    "7396": " markers",
    "7397": "iley",
    "7398": " tigers",
    "7399": " jars",
    "7400": "pecting",
    "7401": " frowns",
    "7402": "bird",
    "7403": " fluttered",
    "7404": " Sadly",
    "7405": " Kit",
    "7406": "Ribbit",
    "7407": " firefighter",
    "7408": " Sl",
    "7409": " Ryan",
    "7410": " suits",
    "7411": " secure",
    "7412": " sprinkled",
    "7413": " creamy",
    "7414": "ashes",
    "7415": " sharks",
    "7416": " ignoring",
    "7417": " bru",
    "7418": " giggles",
    "7419": " tissue",
    "7420": " tighter",
    "7421": " firmly",
    "7422": "ounce",
    "7423": " Laura",
    "7424": " shown",
    "7425": " familiar",
    "7426": "fly",
    "7427": " thorns",
    "7428": "Spike",
    "7429": " Wo",
    "7430": " drawers",
    "7431": "child",
    "7432": " Zee",
    "7433": " express",
    "7434": " def",
    "7435": "Car",
    "7436": "ments",
    "7437": " daring",
    "7438": " crossing",
    "7439": " audience",
    "7440": " performing",
    "7441": " coloured",
    "7442": " cloudy",
    "7443": " cor",
    "7444": " ais",
    "7445": " Nick",
    "7446": "ae",
    "7447": "rat",
    "7448": " pedaled",
    "7449": "Get",
    "7450": " mixture",
    "7451": " til",
    "7452": " gracefully",
    "7453": "ggy",
    "7454": " haircuts",
    "7455": " yielded",
    "7456": " ponies",
    "7457": " disob",
    "7458": " crowns",
    "7459": " bits",
    "7460": " todd",
    "7461": " Sleep",
    "7462": " nervously",
    "7463": " hangers",
    "7464": "bbled",
    "7465": " Patch",
    "7466": "Zoomy",
    "7467": " pays",
    "7468": " 2",
    "7469": " peck",
    "7470": " stroke",
    "7471": " ev",
    "7472": "fall",
    "7473": "Bang",
    "7474": " respected",
    "7475": " napped",
    "7476": "aven",
    "7477": " minded",
    "7478": "ddie",
    "7479": "Bessie",
    "7480": "ably",
    "7481": "Boys",
    "7482": " tested",
    "7483": "ading",
    "7484": "parent",
    "7485": " Chris",
    "7486": "Kim",
    "7487": " University",
    "7488": " Near",
    "7489": " beeh",
    "7490": " Turtle",
    "7491": " surfing",
    "7492": " neighbours",
    "7493": "arrow",
    "7494": "vered",
    "7495": " shady",
    "7496": "iona",
    "7497": "arlings",
    "7498": " magician",
    "7499": " enthusiasm",
    "7500": " darlings",
    "7501": " wisely",
    "7502": " stitches",
    "7503": " sails",
    "7504": "Dear",
    "7505": " weekend",
    "7506": " thoughts",
    "7507": "Freddy",
    "7508": " Tweetie",
    "7509": " reminds",
    "7510": "fted",
    "7511": " temper",
    "7512": "oring",
    "7513": "tha",
    "7514": "antha",
    "7515": " surroundings",
    "7516": " spits",
    "7517": " fleas",
    "7518": " teams",
    "7519": " lessons",
    "7520": " fills",
    "7521": " flip",
    "7522": " Along",
    "7523": " paintbrush",
    "7524": " melons",
    "7525": " mermaid",
    "7526": "oni",
    "7527": "lle",
    "7528": "Katie",
    "7529": " grandchild",
    "7530": " hoops",
    "7531": " explo",
    "7532": " elbow",
    "7533": " sports",
    "7534": "Guess",
    "7535": " lies",
    "7536": " Fighting",
    "7537": "rac",
    "7538": " panicked",
    "7539": " cleaner",
    "7540": " amount",
    "7541": "cused",
    "7542": " longest",
    "7543": " scooters",
    "7544": " lent",
    "7545": "ita",
    "7546": "immering",
    "7547": " sill",
    "7548": " beloved",
    "7549": "Pippin",
    "7550": " beehive",
    "7551": "Alright",
    "7552": "ongrat",
    "7553": "oga",
    "7554": "ongratul",
    "7555": " oysters",
    "7556": " grandparent",
    "7557": " forgiven",
    "7558": " magazines",
    "7559": " arr",
    "7560": " Wise",
    "7561": " elf",
    "7562": " repeating",
    "7563": " discussed",
    "7564": " sweetest",
    "7565": " Thanks",
    "7566": "Keep",
    "7567": " wadd",
    "7568": " Maya",
    "7569": " reass",
    "7570": " lace",
    "7571": " Granny",
    "7572": " nightmares",
    "7573": " tubes",
    "7574": " Willy",
    "7575": " understands",
    "7576": " spoonful",
    "7577": " nood",
    "7578": " bathing",
    "7579": " Zoey",
    "7580": "asty",
    "7581": "Am",
    "7582": " sweep",
    "7583": " manners",
    "7584": "crow",
    "7585": "Uncle",
    "7586": " wrink",
    "7587": " sprang",
    "7588": " nur",
    "7589": " bully",
    "7590": " Holly",
    "7591": " guide",
    "7592": " Yet",
    "7593": "onna",
    "7594": "ancy",
    "7595": " crew",
    "7596": "romise",
    "7597": "Jazz",
    "7598": " breathed",
    "7599": "while",
    "7600": "steps",
    "7601": "ilda",
    "7602": "ently",
    "7603": " Bally",
    "7604": " bulbs",
    "7605": " neare",
    "7606": " grassy",
    "7607": " wiggly",
    "7608": " testing",
    "7609": " spies",
    "7610": " coug",
    "7611": " solving",
    "7612": " sheets",
    "7613": " Roo",
    "7614": " footsteps",
    "7615": "ntil",
    "7616": "Afterwards",
    "7617": " speeding",
    "7618": " focused",
    "7619": "ounced",
    "7620": "cept",
    "7621": "?!\"",
    "7622": " mesmerized",
    "7623": " camel",
    "7624": " braver",
    "7625": " hesitant",
    "7626": " Sparkle",
    "7627": " licking",
    "7628": " rushing",
    "7629": " Well",
    "7630": " joining",
    "7631": " Puppy",
    "7632": " polar",
    "7633": " greeted",
    "7634": " Martha",
    "7635": "espite",
    "7636": "--",
    "7637": " Bubb",
    "7638": "Which",
    "7639": "Kiki",
    "7640": " worn",
    "7641": " materials",
    "7642": " changes",
    "7643": " Nobody",
    "7644": "undred",
    "7645": " stored",
    "7646": " bicycles",
    "7647": "een",
    "7648": " mast",
    "7649": " anger",
    "7650": "Leave",
    "7651": " peacefully",
    "7652": " ships",
    "7653": " spice",
    "7654": " terrified",
    "7655": " nuzz",
    "7656": " gonna",
    "7657": " Show",
    "7658": " politely",
    "7659": "Snow",
    "7660": " spills",
    "7661": " scarecrow",
    "7662": " knives",
    "7663": " evil",
    "7664": " Mixy",
    "7665": "ppies",
    "7666": " burying",
    "7667": "ca",
    "7668": " healing",
    "7669": " aren",
    "7670": " donkey",
    "7671": " aeroplanes",
    "7672": "freeze",
    "7673": "Even",
    "7674": " seals",
    "7675": " scattering",
    "7676": " miles",
    "7677": " Chewy",
    "7678": "amboo",
    "7679": " dump",
    "7680": " worrying",
    "7681": " Soft",
    "7682": "Bee",
    "7683": "zoom",
    "7684": "beep",
    "7685": "David",
    "7686": " Lenny",
    "7687": " puzzled",
    "7688": " stacked",
    "7689": " Kip",
    "7690": "Penny",
    "7691": " Nice",
    "7692": " loses",
    "7693": "dding",
    "7694": " travelled",
    "7695": " baskets",
    "7696": " Win",
    "7697": " Okay",
    "7698": " gazing",
    "7699": " blast",
    "7700": "ipes",
    "7701": " Tess",
    "7702": "erm",
    "7703": "Hurry",
    "7704": " temperature",
    "7705": " und",
    "7706": " tasting",
    "7707": " dripping",
    "7708": " clue",
    "7709": " believing",
    "7710": " pinching",
    "7711": " soaking",
    "7712": " rats",
    "7713": " 10",
    "7714": "isc",
    "7715": " sandy",
    "7716": "rect",
    "7717": " Isn",
    "7718": " Simon",
    "7719": "rey",
    "7720": "anwhile",
    "7721": " Abi",
    "7722": "Binky",
    "7723": " punishment",
    "7724": " banged",
    "7725": " humans",
    "7726": " crashing",
    "7727": " force",
    "7728": " Ana",
    "7729": " hundred",
    "7730": " gest",
    "7731": " Lia",
    "7732": " swimmer",
    "7733": " Chess",
    "7734": " snowflakes",
    "7735": " relaxing",
    "7736": " resisted",
    "7737": " beeped",
    "7738": " Fairy",
    "7739": " quarreled",
    "7740": " \n",
    "7741": "form",
    "7742": "elie",
    "7743": " ramp",
    "7744": " Wendy",
    "7745": " joins",
    "7746": "abby",
    "7747": " backpacks",
    "7748": " Ph",
    "7749": "years",
    "7750": " dressing",
    "7751": " delayed",
    "7752": " toddler",
    "7753": " Luckily",
    "7754": "ofia",
    "7755": " flight",
    "7756": " covering",
    "7757": " Te",
    "7758": "orter",
    "7759": "Two",
    "7760": "Open",
    "7761": "By",
    "7762": " encouragement",
    "7763": " benches",
    "7764": " toward",
    "7765": " scraped",
    "7766": " purpose",
    "7767": " focus",
    "7768": " Judy",
    "7769": "Bow",
    "7770": " correct",
    "7771": "'.\"",
    "7772": " lipstick",
    "7773": " bamboo",
    "7774": "Spe",
    "7775": " twinkled",
    "7776": " potion",
    "7777": " permitted",
    "7778": " months",
    "7779": " Cow",
    "7780": " languages",
    "7781": " orders",
    "7782": " freedom",
    "7783": "Tony",
    "7784": " risks",
    "7785": " poppies",
    "7786": " master",
    "7787": "shm",
    "7788": " noodles",
    "7789": " faded",
    "7790": " wounds",
    "7791": "shmallow",
    "7792": "rier",
    "7793": "Kids",
    "7794": "isions",
    "7795": " Jojo",
    "7796": " creams",
    "7797": " birdhouse",
    "7798": " cells",
    "7799": " annoyed",
    "7800": " Herb",
    "7801": "opes",
    "7802": " sniffing",
    "7803": " cheers",
    "7804": " adults",
    "7805": "Birdy",
    "7806": " unwra",
    "7807": "ecca",
    "7808": "Buzzy",
    "7809": " puck",
    "7810": " opinions",
    "7811": " floats",
    "7812": "andas",
    "7813": "Instead",
    "7814": " flown",
    "7815": " sneezes",
    "7816": " scen",
    "7817": " handsome",
    "7818": " nodding",
    "7819": " Mint",
    "7820": " smelling",
    "7821": " burnt",
    "7822": " 5",
    "7823": " drifted",
    "7824": "ider",
    "7825": "bage",
    "7826": " within",
    "7827": " scient",
    "7828": " height",
    "7829": " damaged",
    "7830": " bothering",
    "7831": " tearing",
    "7832": " slither",
    "7833": " pleaded",
    "7834": " instruments",
    "7835": " ease",
    "7836": " Ali",
    "7837": "da",
    "7838": "Back",
    "7839": " scientist",
    "7840": " Marie",
    "7841": "Mira",
    "7842": "Goodnight",
    "7843": " pound",
    "7844": " seller",
    "7845": " handing",
    "7846": " germ",
    "7847": " Say",
    "7848": " wasting",
    "7849": " files",
    "7850": " results",
    "7851": " dreamt",
    "7852": " Mabel",
    "7853": "bell",
    "7854": " explains",
    "7855": " destroying",
    "7856": " brushing",
    "7857": "ousy",
    "7858": " hiss",
    "7859": " characters",
    "7860": " Razor",
    "7861": " Cr",
    "7862": "Carl",
    "7863": " certain",
    "7864": " Ste",
    "7865": "Pandy",
    "7866": "Behind",
    "7867": " sweaty",
    "7868": " Hug",
    "7869": "unched",
    "7870": " business",
    "7871": " Robbie",
    "7872": " talents",
    "7873": " onward",
    "7874": "Try",
    "7875": " engines",
    "7876": " bravest",
    "7877": "ition",
    "7878": " sternly",
    "7879": " Pen",
    "7880": " Janie",
    "7881": "prints",
    "7882": " postman",
    "7883": " mosquitoes",
    "7884": " minds",
    "7885": "under",
    "7886": "cake",
    "7887": " tuck",
    "7888": " scares",
    "7889": "urious",
    "7890": " stomp",
    "7891": " apologised",
    "7892": "uel",
    "7893": " manag",
    "7894": " snuck",
    "7895": " bitten",
    "7896": "attered",
    "7897": " tilted",
    "7898": " switched",
    "7899": " reminding",
    "7900": " decisions",
    "7901": " singers",
    "7902": " desper",
    "7903": " behavior",
    "7904": " Poor",
    "7905": "ashing",
    "7906": " Judge",
    "7907": "bbers",
    "7908": "inny",
    "7909": " squeaked",
    "7910": " peeled",
    "7911": " Everybody",
    "7912": " yumm",
    "7913": " purrs",
    "7914": " Bra",
    "7915": " treated",
    "7916": " smashed",
    "7917": " rustling",
    "7918": " displayed",
    "7919": " Until",
    "7920": " neatly",
    "7921": " matey",
    "7922": " planting",
    "7923": " Bess",
    "7924": " marshmallow",
    "7925": " insp",
    "7926": " yelped",
    "7927": " sy",
    "7928": " grandparents",
    "7929": " cracks",
    "7930": " bellies",
    "7931": "aver",
    "7932": " shines",
    "7933": " scamp",
    "7934": " Navy",
    "7935": " hoo",
    "7936": " failed",
    "7937": " coloring",
    "7938": " Yoga",
    "7939": "line",
    "7940": " zooms",
    "7941": " Make",
    "7942": "rup",
    "7943": " nasty",
    "7944": " breathing",
    "7945": " combed",
    "7946": " pandas",
    "7947": " despite",
    "7948": " address",
    "7949": "ighing",
    "7950": " waterfall",
    "7951": "uffin",
    "7952": "omp",
    "7953": "cc",
    "7954": " Loop",
    "7955": " Angel",
    "7956": "Tilly",
    "7957": " wider",
    "7958": " robbers",
    "7959": " antic",
    "7960": "Play",
    "7961": "Abigail",
    "7962": " sweaters",
    "7963": " echoed",
    "7964": " doorway",
    "7965": " Todd",
    "7966": "evin",
    "7967": " edges",
    "7968": " inj",
    "7969": " Shadow",
    "7970": "Aunt",
    "7971": " gap",
    "7972": " disobey",
    "7973": " Blinky",
    "7974": "wise",
    "7975": "Liz",
    "7976": " Michael",
    "7977": " tar",
    "7978": " Flick",
    "7979": "oscope",
    "7980": "orking",
    "7981": "Wake",
    "7982": " taped",
    "7983": " magnif",
    "7984": "ulp",
    "7985": "father",
    "7986": " scolds",
    "7987": " flaps",
    "7988": " action",
    "7989": " crawls",
    "7990": " Mindy",
    "7991": "Ros",
    "7992": " swap",
    "7993": " gobbled",
    "7994": " backs",
    "7995": " Gary",
    "7996": " warri",
    "7997": " Fishy",
    "7998": " Eddie",
    "7999": "Slow",
    "8000": " steth",
    "8001": " sever",
    "8002": " shinier",
    "8003": " probably",
    "8004": " newspapers",
    "8005": " several",
    "8006": " occ",
    "8007": "Rock",
    "8008": "Lena",
    "8009": " encount",
    "8010": " Meg",
    "8011": " serving",
    "8012": " quieter",
    "8013": " plucked",
    "8014": " connected",
    "8015": "tock",
    "8016": " Share",
    "8017": " ouch",
    "8018": "igger",
    "8019": "Ted",
    "8020": "Adam",
    "8021": " gesture",
    "8022": "Too",
    "8023": "Fl",
    "8024": " student",
    "8025": " plot",
    "8026": " doorbell",
    "8027": " squaw",
    "8028": " cares",
    "8029": "fire",
    "8030": " rescuing",
    "8031": " grandson",
    "8032": " Se",
    "8033": " spy",
    "8034": " simply",
    "8035": " rows",
    "8036": " goo",
    "8037": "iel",
    "8038": " whistles",
    "8039": "mies",
    "8040": "vant",
    "8041": "Shrink",
    "8042": "Magic",
    "8043": " snaps",
    "8044": " shorter",
    "8045": " astronauts",
    "8046": "ssss",
    "8047": " unpacking",
    "8048": " cottage",
    "8049": " Time",
    "8050": " swo",
    "8051": " accidents",
    "8052": "ibi",
    "8053": " swollen",
    "8054": " mood",
    "8055": " Nut",
    "8056": "Steve",
    "8057": "abelle",
    "8058": " Zippy",
    "8059": " Mousy",
    "8060": "anie",
    "8061": "Zara",
    "8062": " bothered",
    "8063": "Hannah",
    "8064": " stethoscope",
    "8065": " trusting",
    "8066": " causing",
    "8067": "Mat",
    "8068": "Mad",
    "8069": " leapt",
    "8070": " dresser",
    "8071": "found",
    "8072": "aint",
    "8073": " sou",
    "8074": " proper",
    "8075": " pills",
    "8076": "retty",
    "8077": " throughout",
    "8078": "Olive",
    "8079": " runner",
    "8080": " prayers",
    "8081": " Dina",
    "8082": " joyful",
    "8083": "Thomas",
    "8084": "mates",
    "8085": " locks",
    "8086": " Prince",
    "8087": "Jamie",
    "8088": " goats",
    "8089": "what",
    "8090": " target",
    "8091": "rest",
    "8092": " Wait",
    "8093": " Karen",
    "8094": " dears",
    "8095": " Bang",
    "8096": "artled",
    "8097": "Red",
    "8098": " waddled",
    "8099": " munch",
    "8100": " flips",
    "8101": " Cro",
    "8102": " lowered",
    "8103": " stepping",
    "8104": " cons",
    "8105": " Jackie",
    "8106": " teachers",
    "8107": " cowboy",
    "8108": " Toys",
    "8109": " inches",
    "8110": " envelopes",
    "8111": "ears",
    "8112": " char",
    "8113": " Vroom",
    "8114": " explorer",
    "8115": " anticip",
    "8116": " playd",
    "8117": " Ready",
    "8118": " Ruff",
    "8119": " Ralph",
    "8120": "unity",
    "8121": "Nice",
    "8122": "Finn",
    "8123": " Bad",
    "8124": "ening",
    "8125": " knocking",
    "8126": " floors",
    "8127": " efforts",
    "8128": " Pl",
    "8129": " uniforms",
    "8130": "lied",
    "8131": " Tri",
    "8132": " aware",
    "8133": " footprints",
    "8134": "Someone",
    "8135": " nearly",
    "8136": " Fiona",
    "8137": "llas",
    "8138": " disc",
    "8139": " Ria",
    "8140": "ivi",
    "8141": " whimp",
    "8142": " trot",
    "8143": " sens",
    "8144": " glitt",
    "8145": " appreciation",
    "8146": "oosh",
    "8147": " necks",
    "8148": " collap",
    "8149": " checks",
    "8150": " lapt",
    "8151": " except",
    "8152": " plug",
    "8153": " charge",
    "8154": " Jacky",
    "8155": " fluttering",
    "8156": " umbrellas",
    "8157": " stamped",
    "8158": "acy",
    "8159": " sandcastles",
    "8160": " Davey",
    "8161": " statues",
    "8162": " Honey",
    "8163": "omb",
    "8164": "iscuit",
    "8165": "ails",
    "8166": "Hoppy",
    "8167": " shrank",
    "8168": " Amelia",
    "8169": "rily",
    "8170": " prick",
    "8171": " finishing",
    "8172": " adds",
    "8173": "rons",
    "8174": " stroll",
    "8175": " hunters",
    "8176": " dodged",
    "8177": " chocolates",
    "8178": " passengers",
    "8179": " germs",
    "8180": "oger",
    "8181": " wrigg",
    "8182": " aprons",
    "8183": " aisle",
    "8184": " sets",
    "8185": ".'\"",
    "8186": " Gerry",
    "8187": " weeds",
    "8188": " novels",
    "8189": "order",
    "8190": " demanding",
    "8191": " Taking",
    "8192": " scratching",
    "8193": " meows",
    "8194": "issa",
    "8195": "Dr",
    "8196": " nurses",
    "8197": "Lucky",
    "8198": " minding",
    "8199": " discussing",
    "8200": "urrender",
    "8201": " killed",
    "8202": " driveway",
    "8203": " Cari",
    "8204": " becomes",
    "8205": " toolbox",
    "8206": " laptop",
    "8207": " haird",
    "8208": " Eliz",
    "8209": " posit",
    "8210": " attack",
    "8211": " Sadie",
    "8212": " Despite",
    "8213": "Speedy",
    "8214": " Gl",
    "8215": "sol",
    "8216": " scampered",
    "8217": " bounces",
    "8218": " supplied",
    "8219": " sprays",
    "8220": " deed",
    "8221": " tempt",
    "8222": " suggestion",
    "8223": " friendships",
    "8224": " burns",
    "8225": "Coco",
    "8226": " slapping",
    "8227": " closing",
    "8228": "Arrr",
    "8229": " invites",
    "8230": " belongings",
    "8231": " anticipation",
    "8232": " springing",
    "8233": " form",
    "8234": " erase",
    "8235": " cotton",
    "8236": " Stan",
    "8237": " twists",
    "8238": " rays",
    "8239": " snuggle",
    "8240": " forgives",
    "8241": " models",
    "8242": " shall",
    "8243": " massages",
    "8244": " humming",
    "8245": "onnie",
    "8246": " responded",
    "8247": " newfound",
    "8248": " ghosts",
    "8249": " expecting",
    "8250": " Shelly",
    "8251": " cheated",
    "8252": "Does",
    "8253": " Wooly",
    "8254": "Gigi",
    "8255": "otte",
    "8256": " traveling",
    "8257": " Ne",
    "8258": " cond",
    "8259": " battle",
    "8260": " although",
    "8261": "alloween",
    "8262": " mommies",
    "8263": " invitations",
    "8264": " carries",
    "8265": " aim",
    "8266": " refreshing",
    "8267": " presented",
    "8268": " conc",
    "8269": "hel",
    "8270": " twenty",
    "8271": " rowed",
    "8272": " Bumpy",
    "8273": "ots",
    "8274": " squir",
    "8275": "rie",
    "8276": "arlotte",
    "8277": " foxes",
    "8278": " cooper",
    "8279": " final",
    "8280": " duckling",
    "8281": " cafe",
    "8282": " Bibi",
    "8283": "Pip",
    "8284": " marshmallows",
    "8285": " clicked",
    "8286": " Zipper",
    "8287": "oor",
    "8288": " jets",
    "8289": " designing",
    "8290": " beaver",
    "8291": "five",
    "8292": " Muffin",
    "8293": " Halloween",
    "8294": " mugs",
    "8295": " Whoever",
    "8296": " drown",
    "8297": " Although",
    "8298": " tricycle",
    "8299": " picnics",
    "8300": " oppos",
    "8301": " convin",
    "8302": " Ruth",
    "8303": " Excited",
    "8304": "iens",
    "8305": " Cle",
    "8306": "po",
    "8307": " scoops",
    "8308": " congratul",
    "8309": " Pop",
    "8310": " Maddie",
    "8311": "off",
    "8312": "Sadly",
    "8313": " \u2014",
    "8314": " travels",
    "8315": " aliens",
    "8316": " tests",
    "8317": " questioned",
    "8318": " Speed",
    "8319": "inted",
    "8320": " strips",
    "8321": "Near",
    "8322": "atty",
    "8323": "Mouse",
    "8324": "covered",
    "8325": " defe",
    "8326": " Flutter",
    "8327": " Bubba",
    "8328": "iri",
    "8329": "ended",
    "8330": "Br",
    "8331": " fights",
    "8332": "roken",
    "8333": "Ball",
    "8334": " opposite",
    "8335": " Biggy",
    "8336": "Hmm",
    "8337": "Find",
    "8338": "Elly",
    "8339": "Chloe",
    "8340": " Im",
    "8341": " rout",
    "8342": " grandfather",
    "8343": " encountered",
    "8344": " afford",
    "8345": " Never",
    "8346": " decl",
    "8347": "inch",
    "8348": " raising",
    "8349": "iment",
    "8350": " upside",
    "8351": " Vivi",
    "8352": "Meanwhile",
    "8353": "Jess",
    "8354": " flashed",
    "8355": " calmly",
    "8356": " Rita",
    "8357": " yawning",
    "8358": " sincere",
    "8359": " realizes",
    "8360": "aturday",
    "8361": "Trust",
    "8362": "Choo",
    "8363": " crystals",
    "8364": " buddy",
    "8365": " Samantha",
    "8366": " cupcakes",
    "8367": " buckled",
    "8368": "byes",
    "8369": "Both",
    "8370": " winners",
    "8371": " defin",
    "8372": "verse",
    "8373": "ris",
    "8374": "',",
    "8375": " weapons",
    "8376": " caw",
    "8377": "shadow",
    "8378": "Josh",
    "8379": " packages",
    "8380": " cheat",
    "8381": " Saturday",
    "8382": " sacks",
    "8383": " messes",
    "8384": " goodbyes",
    "8385": " coach",
    "8386": " attem",
    "8387": "quet",
    "8388": " convers",
    "8389": " Truck",
    "8390": " Flo",
    "8391": "val",
    "8392": " caps",
    "8393": " Mina",
    "8394": " Eva",
    "8395": "emies",
    "8396": " enemies",
    "8397": "asha",
    "8398": " yummiest",
    "8399": " scrub",
    "8400": " swallow",
    "8401": " returning",
    "8402": "rian",
    "8403": " admiration",
    "8404": " Softy",
    "8405": " Megan",
    "8406": "Since",
    "8407": " sprout",
    "8408": " Louise",
    "8409": " unable",
    "8410": " Playing",
    "8411": " Another",
    "8412": "ugging",
    "8413": "ooks",
    "8414": " sadder",
    "8415": " freezing",
    "8416": " brightest",
    "8417": " bless",
    "8418": " Yawn",
    "8419": " respon",
    "8420": " Man",
    "8421": "reverse",
    "8422": " response",
    "8423": " cosy",
    "8424": " Oh",
    "8425": " diamonds",
    "8426": " bride",
    "8427": "stalk",
    "8428": " reapp",
    "8429": " opport",
    "8430": " honking",
    "8431": " garbage",
    "8432": " whispering",
    "8433": " stretches",
    "8434": " prevented",
    "8435": "erk",
    "8436": "antastic",
    "8437": " whoever",
    "8438": " odd",
    "8439": " awful",
    "8440": " Gray",
    "8441": "alth",
    "8442": " weighs",
    "8443": " journeys",
    "8444": " awoke",
    "8445": "Brrr",
    "8446": " traps",
    "8447": " spices",
    "8448": " dragonfly",
    "8449": " born",
    "8450": " reassured",
    "8451": " clip",
    "8452": "ivia",
    "8453": " stall",
    "8454": " beanstalk",
    "8455": " argum",
    "8456": " examining",
    "8457": " definitely",
    "8458": " beetles",
    "8459": " automobiles",
    "8460": " Maisy",
    "8461": "mine",
    "8462": "ici",
    "8463": "Hop",
    "8464": " visitors",
    "8465": " stuffing",
    "8466": " playdate",
    "8467": " washes",
    "8468": "cie",
    "8469": "broken",
    "8470": " wiser",
    "8471": " customer",
    "8472": "uper",
    "8473": "emma",
    "8474": "Rachel",
    "8475": " travelling",
    "8476": " Sofia",
    "8477": " Jolly",
    "8478": " Flop",
    "8479": "ouquet",
    "8480": " hairdress",
    "8481": " bouquet",
    "8482": " Nurse",
    "8483": "orse",
    "8484": "bble",
    "8485": ",'",
    "8486": " tumbled",
    "8487": " decoration",
    "8488": " campfire",
    "8489": " Elle",
    "8490": " honesty",
    "8491": " bud",
    "8492": "vy",
    "8493": "ebecca",
    "8494": "action",
    "8495": "Only",
    "8496": " bomb",
    "8497": " welcoming",
    "8498": " offering",
    "8499": " wealth",
    "8500": " troubles",
    "8501": " occas",
    "8502": " increasing",
    "8503": " Ot",
    "8504": " Jax",
    "8505": " Hello",
    "8506": " loudest",
    "8507": " inspired",
    "8508": " type",
    "8509": " parted",
    "8510": " groan",
    "8511": " Chick",
    "8512": " Nutty",
    "8513": "irac",
    "8514": " whales",
    "8515": " Thunder",
    "8516": " Ricky",
    "8517": "yl",
    "8518": " declared",
    "8519": " correctly",
    "8520": "yler",
    "8521": "ooky",
    "8522": "fus",
    "8523": " craft",
    "8524": " beaks",
    "8525": " Quacky",
    "8526": "athan",
    "8527": " cleared",
    "8528": " cowboys",
    "8529": " nuzzled",
    "8530": " Dotty",
    "8531": " prizes",
    "8532": " exch",
    "8533": "Finny",
    "8534": " warmly",
    "8535": " Missile",
    "8536": " rewards",
    "8537": " obeyed",
    "8538": " customers",
    "8539": "Should",
    "8540": " sirens",
    "8541": " comforting",
    "8542": " Fel",
    "8543": "shaped",
    "8544": " connect",
    "8545": " Flappy",
    "8546": "match",
    "8547": " towns",
    "8548": " Magic",
    "8549": " Bingo",
    "8550": "elieve",
    "8551": " rely",
    "8552": " Vicky",
    "8553": "Honey",
    "8554": " trigger",
    "8555": " owns",
    "8556": " insisting",
    "8557": " fantastic",
    "8558": " bends",
    "8559": " Fe",
    "8560": " spoiling",
    "8561": " hairdresser",
    "8562": " surrendered",
    "8563": " supporting",
    "8564": " shares",
    "8565": " poses",
    "8566": " pipes",
    "8567": " cleans",
    "8568": "rench",
    "8569": "Sun",
    "8570": "Outside",
    "8571": "Julie",
    "8572": " wrinkled",
    "8573": " Cook",
    "8574": " chopped",
    "8575": " recorder",
    "8576": " moons",
    "8577": " beaming",
    "8578": "unes",
    "8579": "ellow",
    "8580": "Beth",
    "8581": " thanking",
    "8582": " snowy",
    "8583": " Wolf",
    "8584": " scurry",
    "8585": " experien",
    "8586": " enjoyable",
    "8587": " active",
    "8588": " coral",
    "8589": " Piggy",
    "8590": " environ",
    "8591": " dollar",
    "8592": " Kevin",
    "8593": "worm",
    "8594": "elope",
    "8595": " loc",
    "8596": "Je",
    "8597": " streamers",
    "8598": " Bub",
    "8599": "udged",
    "8600": " Patty",
    "8601": " Mother",
    "8602": " Zack",
    "8603": "inger",
    "8604": "Suzy",
    "8605": " examp",
    "8606": " shorts",
    "8607": " shooed",
    "8608": " environment",
    "8609": "Tree",
    "8610": " ill",
    "8611": " scent",
    "8612": " bruises",
    "8613": "uster",
    "8614": " grat",
    "8615": " Luc",
    "8616": "Bo",
    "8617": " hisses",
    "8618": " steering",
    "8619": " self",
    "8620": " plugged",
    "8621": " Elsa",
    "8622": " warrior",
    "8623": " visits",
    "8624": " exercises",
    "8625": "screen",
    "8626": "irl",
    "8627": "aptain",
    "8628": " dangers",
    "8629": " cuddles",
    "8630": " Rel",
    "8631": " Min",
    "8632": " Ar",
    "8633": " unfortunately",
    "8634": " squished",
    "8635": " signing",
    "8636": " Light",
    "8637": "bee",
    "8638": "Ray",
    "8639": " pilots",
    "8640": " disappoint",
    "8641": "munk",
    "8642": " gratitude",
    "8643": " applauding",
    "8644": "alf",
    "8645": " providing",
    "8646": " Moppy",
    "8647": " tickles",
    "8648": " ting",
    "8649": " Rub",
    "8650": "Grow",
    "8651": " storms",
    "8652": " nights",
    "8653": " jud",
    "8654": " convinced",
    "8655": " badger",
    "8656": " Elsie",
    "8657": " youn",
    "8658": " responsib",
    "8659": " choosing",
    "8660": " Kelly",
    "8661": "Joy",
    "8662": " youngest",
    "8663": " nearest",
    "8664": " brains",
    "8665": " activity",
    "8666": "Abby",
    "8667": " exploded",
    "8668": " coughed",
    "8669": " arranged",
    "8670": "Claire",
    "8671": " rewarding",
    "8672": " Tre",
    "8673": " Fly",
    "8674": "good",
    "8675": "erpiece",
    "8676": " sunscreen",
    "8677": " peep",
    "8678": " bond",
    "8679": " Floppy",
    "8680": "asers",
    "8681": "Mon",
    "8682": " Tweety",
    "8683": " Sweet",
    "8684": " Katy",
    "8685": " Joan",
    "8686": " Sal",
    "8687": "ilities",
    "8688": " annoying",
    "8689": "sn",
    "8690": " soapy",
    "8691": "meow",
    "8692": "Splash",
    "8693": " rails",
    "8694": " laces",
    "8695": " threads",
    "8696": " tapping",
    "8697": " offic",
    "8698": " appreciated",
    "8699": " Pine",
    "8700": " Phil",
    "8701": "boards",
    "8702": " weighing",
    "8703": " heartbroken",
    "8704": " emerged",
    "8705": " congratulated",
    "8706": " Pick",
    "8707": "Danger",
    "8708": " tin",
    "8709": " Sil",
    "8710": " crocodiles",
    "8711": " clerk",
    "8712": " scram",
    "8713": " attempt",
    "8714": " Nancy",
    "8715": "water",
    "8716": "Ahoy",
    "8717": " snug",
    "8718": " messed",
    "8719": " example",
    "8720": " dial",
    "8721": " Kay",
    "8722": " Any",
    "8723": "Momma",
    "8724": " hooks",
    "8725": " Jonny",
    "8726": " tops",
    "8727": " chipmunk",
    "8728": " soot",
    "8729": " guarding",
    "8730": " bathed",
    "8731": " manager",
    "8732": " Tippy",
    "8733": "ortunately",
    "8734": " Microscope",
    "8735": "Friends",
    "8736": " De",
    "8737": "etah",
    "8738": "Snowy",
    "8739": " masterpiece",
    "8740": " Baa",
    "8741": "ending",
    "8742": " erasers",
    "8743": " tips",
    "8744": " finishes",
    "8745": " fet",
    "8746": " common",
    "8747": " Tomorrow",
    "8748": "mbers",
    "8749": " trotted",
    "8750": " nibbled",
    "8751": " members",
    "8752": " digs",
    "8753": "People",
    "8754": " kinder",
    "8755": " cheetah",
    "8756": " particularly",
    "8757": " chews",
    "8758": " blond",
    "8759": "ircle",
    "8760": " rips",
    "8761": " beast",
    "8762": "Lizzy",
    "8763": " argument",
    "8764": "ative",
    "8765": " faith",
    "8766": " Helping",
    "8767": " earned",
    "8768": "Anne",
    "8769": " observing",
    "8770": " forgiveness",
    "8771": " Joke",
    "8772": " Cici",
    "8773": "chievous",
    "8774": " instantly",
    "8775": " fishes",
    "8776": " experienced",
    "8777": " curl",
    "8778": " cheaper",
    "8779": " Jumpy",
    "8780": "Rosie",
    "8781": " mischievous",
    "8782": " generosity",
    "8783": " cages",
    "8784": " Twist",
    "8785": "Gr",
    "8786": "Baa",
    "8787": " meowing",
    "8788": " foam",
    "8789": "mered",
    "8790": "Cindy",
    "8791": " stores",
    "8792": " grandd",
    "8793": " Ag",
    "8794": "etchup",
    "8795": " mattered",
    "8796": " teles",
    "8797": " passes",
    "8798": " limp",
    "8799": "Sque",
    "8800": " sleeps",
    "8801": "iolet",
    "8802": " breaths",
    "8803": "ordinary",
    "8804": "ettle",
    "8805": " rin",
    "8806": " gasps",
    "8807": " Freddie",
    "8808": "pr",
    "8809": "Got",
    "8810": " trans",
    "8811": " rumbling",
    "8812": " hatch",
    "8813": " Momma",
    "8814": "over",
    "8815": "abra",
    "8816": " satisf",
    "8817": " grassho",
    "8818": " accomplished",
    "8819": " Hopper",
    "8820": "acing",
    "8821": " thump",
    "8822": " telescope",
    "8823": " strum",
    "8824": " smartest",
    "8825": " mats",
    "8826": " whined",
    "8827": " moat",
    "8828": "Gina",
    "8829": " scrambled",
    "8830": " jugg",
    "8831": " farmers",
    "8832": " Ice",
    "8833": " drip",
    "8834": "Robbie",
    "8835": " syrup",
    "8836": " gardens",
    "8837": " collapsed",
    "8838": " angrily",
    "8839": " More",
    "8840": "ouraged",
    "8841": "idey",
    "8842": " vegg",
    "8843": " styles",
    "8844": " forests",
    "8845": " experiences",
    "8846": " discoveries",
    "8847": "hole",
    "8848": " tor",
    "8849": " medals",
    "8850": " types",
    "8851": " otters",
    "8852": " meaning",
    "8853": " faint",
    "8854": " conqu",
    "8855": " Does",
    "8856": "pit",
    "8857": "adabra",
    "8858": "acock",
    "8859": " snapping",
    "8860": " hardest",
    "8861": " fif",
    "8862": "ering",
    "8863": " movements",
    "8864": " expression",
    "8865": " surv",
    "8866": " chilly",
    "8867": " bubbly",
    "8868": " affect",
    "8869": "Pinky",
    "8870": " vests",
    "8871": " unfair",
    "8872": " court",
    "8873": "Whenever",
    "8874": " toothbrush",
    "8875": " scores",
    "8876": " extraordinary",
    "8877": "Never",
    "8878": " attitude",
    "8879": " vibr",
    "8880": " horri",
    "8881": " bluebird",
    "8882": " Monkey",
    "8883": "mel",
    "8884": "lls",
    "8885": "Mo",
    "8886": " spears",
    "8887": " ketchup",
    "8888": " Berry",
    "8889": "Mother",
    "8890": " sooner",
    "8891": " grasshopper",
    "8892": " behaviour",
    "8893": " patches",
    "8894": " habit",
    "8895": "yd",
    "8896": "erts",
    "8897": "Karen",
    "8898": " pokes",
    "8899": " momma",
    "8900": " afar",
    "8901": " Ashley",
    "8902": "ieves",
    "8903": "Jacob",
    "8904": " thicker",
    "8905": " scri",
    "8906": " Friend",
    "8907": "Jon",
    "8908": " squeezes",
    "8909": " slithered",
    "8910": " shrunk",
    "8911": " classmates",
    "8912": " Terry",
    "8913": " Fle",
    "8914": " icky",
    "8915": " prickly",
    "8916": " glittering",
    "8917": "lo",
    "8918": " expert",
    "8919": " topp",
    "8920": " kneeling",
    "8921": " announced",
    "8922": " Super",
    "8923": " Riri",
    "8924": "elling",
    "8925": " peacock",
    "8926": " marking",
    "8927": "ctric",
    "8928": " costs",
    "8929": " Cally",
    "8930": " Achoo",
    "8931": " zigzags",
    "8932": " watermel",
    "8933": " thieves",
    "8934": " skirts",
    "8935": " jumper",
    "8936": " hood",
    "8937": " acts",
    "8938": " Zog",
    "8939": " App",
    "8940": " wolves",
    "8941": " Swim",
    "8942": " Cloud",
    "8943": "Papa",
    "8944": " thumbs",
    "8945": " squeaky",
    "8946": " drift",
    "8947": " concer",
    "8948": " cocoon",
    "8949": " woodcut",
    "8950": " boards",
    "8951": " Eliza",
    "8952": " Becky",
    "8953": " servant",
    "8954": "idence",
    "8955": "affle",
    "8956": " cheating",
    "8957": " Jason",
    "8958": "bu",
    "8959": " trading",
    "8960": " raking",
    "8961": "cat",
    "8962": "Jessie",
    "8963": " explaining",
    "8964": " Eric",
    "8965": "rick",
    "8966": " tidied",
    "8967": " biscuit",
    "8968": " lunchtime",
    "8969": " luckily",
    "8970": " Ac",
    "8971": "anced",
    "8972": "Frog",
    "8973": " Puffy",
    "8974": " spilling",
    "8975": " Day",
    "8976": "Fire",
    "8977": " transform",
    "8978": " desserts",
    "8979": " Use",
    "8980": " Maddy",
    "8981": " Daniel",
    "8982": " Animal",
    "8983": "\u2026",
    "8984": "ror",
    "8985": " Pig",
    "8986": " Mine",
    "8987": "its",
    "8988": " Still",
    "8989": " Gill",
    "8990": "rough",
    "8991": "amma",
    "8992": " messages",
    "8993": " mirac",
    "8994": " Captain",
    "8995": "idy",
    "8996": " windowsill",
    "8997": " chill",
    "8998": " beating",
    "8999": " Tammy",
    "9000": " Lung",
    "9001": " Gilly",
    "9002": "oot",
    "9003": " seeking",
    "9004": " actor",
    "9005": " Rainbow",
    "9006": " Lina",
    "9007": " William",
    "9008": "sess",
    "9009": " Math",
    "9010": "pril",
    "9011": "Any",
    "9012": " foreshadow",
    "9013": "war",
    "9014": "acles",
    "9015": "Bluey",
    "9016": " leans",
    "9017": " Step",
    "9018": " Pinch",
    "9019": " Hi",
    "9020": "racadabra",
    "9021": "Freeze",
    "9022": "Bounce",
    "9023": " watermelon",
    "9024": " hissing",
    "9025": " flashing",
    "9026": " dev",
    "9027": " cloths",
    "9028": " Tiger",
    "9029": " Monster",
    "9030": " Frankie",
    "9031": " winding",
    "9032": " positive",
    "9033": " funn",
    "9034": " discouraged",
    "9035": " Wil",
    "9036": "pop",
    "9037": " woodcutter",
    "9038": " forts",
    "9039": " dripped",
    "9040": " compete",
    "9041": " teapot",
    "9042": " pressing",
    "9043": " disagreeing",
    "9044": "icking",
    "9045": " glimmering",
    "9046": " veggies",
    "9047": " trusts",
    "9048": " tidying",
    "9049": " kangaroos",
    "9050": " Peep",
    "9051": " tempted",
    "9052": " landing",
    "9053": " Flora",
    "9054": " dock",
    "9055": " shallow",
    "9056": " overw",
    "9057": " formed",
    "9058": "lers",
    "9059": " rack",
    "9060": " fade",
    "9061": " Tooth",
    "9062": "flowers",
    "9063": " worst",
    "9064": " electric",
    "9065": " cops",
    "9066": "eling",
    "9067": "Nothing",
    "9068": " apology",
    "9069": "iving",
    "9070": "creams",
    "9071": "ai",
    "9072": " sleds",
    "9073": " Silver",
    "9074": " Life",
    "9075": "upid",
    "9076": " comets",
    "9077": " ass",
    "9078": "Owl",
    "9079": " sav",
    "9080": " Shark",
    "9081": " Mag",
    "9082": " Jelly",
    "9083": "Bug",
    "9084": " situations",
    "9085": " papa",
    "9086": " officers",
    "9087": " conversation",
    "9088": " 4",
    "9089": "Rain",
    "9090": " Roger",
    "9091": " Charlotte",
    "9092": "storm",
    "9093": "aye",
    "9094": " suns",
    "9095": " ding",
    "9096": "\u201d,",
    "9097": " zips",
    "9098": " structures",
    "9099": " scurrying",
    "9100": " pizzas",
    "9101": " overwhel",
    "9102": " miller",
    "9103": " Butter",
    "9104": " granddaughter",
    "9105": " foggy",
    "9106": " Olivia",
    "9107": " Hurry",
    "9108": " Amber",
    "9109": "Zoe",
    "9110": " Janey",
    "9111": " webs",
    "9112": " deserved",
    "9113": "Rabbit",
    "9114": " opportunity",
    "9115": " cubs",
    "9116": " Yummy",
    "9117": " Spidey",
    "9118": " Sasha",
    "9119": " Mixie",
    "9120": " Buster",
    "9121": " snorted",
    "9122": " rhino",
    "9123": " differences",
    "9124": " Gold",
    "9125": " quacking",
    "9126": " Tell",
    "9127": "ifully",
    "9128": "Fifi",
    "9129": " heaven",
    "9130": " Birds",
    "9131": " unlo",
    "9132": " levers",
    "9133": " inchworm",
    "9134": " inter",
    "9135": " approach",
    "9136": " Tyler",
    "9137": "ssess",
    "9138": " seagulls",
    "9139": " possess",
    "9140": " cooperate",
    "9141": " Rufus",
    "9142": " Felix",
    "9143": " Boom",
    "9144": "welcome",
    "9145": "sers",
    "9146": "ragon",
    "9147": "?\u201d.",
    "9148": "andra",
    "9149": " pose",
    "9150": " disappointment",
    "9151": " Smoke",
    "9152": "ocular",
    "9153": " speaks",
    "9154": " sneaks",
    "9155": "snap",
    "9156": " binocular",
    "9157": " artwork",
    "9158": " surfed",
    "9159": " scowl",
    "9160": " answering",
    "9161": " Snake",
    "9162": " shortcut",
    "9163": " Grand",
    "9164": " sipped",
    "9165": " robin",
    "9166": " dep",
    "9167": "Climb",
    "9168": " arrest",
    "9169": " Inky",
    "9170": "ssy",
    "9171": " unwrapped",
    "9172": " ribbit",
    "9173": " reun",
    "9174": " amused",
    "9175": " Amanda",
    "9176": "ugar",
    "9177": " repeats",
    "9178": " pepperoni",
    "9179": " applause",
    "9180": " keyhole",
    "9181": " checkout",
    "9182": " Mae",
    "9183": " Cars",
    "9184": "Lia",
    "9185": "Deal",
    "9186": " visitor",
    "9187": " striking",
    "9188": " puppets",
    "9189": " paddling",
    "9190": "Eat",
    "9191": " unz",
    "9192": " croaked",
    "9193": " attacked",
    "9194": " Circle",
    "9195": " Brian",
    "9196": "orsie",
    "9197": " spooky",
    "9198": " Otto",
    "9199": " Gus",
    "9200": "Each",
    "9201": " groaned",
    "9202": " beautifully",
    "9203": " Jean",
    "9204": "sie",
    "9205": "gar",
    "9206": "cidents",
    "9207": " swimsuits",
    "9208": " consider",
    "9209": " checking",
    "9210": "uses",
    "9211": " Yellow",
    "9212": "jest",
    "9213": " waters",
    "9214": " groom",
    "9215": " Squeak",
    "9216": " Slinky",
    "9217": "yle",
    "9218": " invent",
    "9219": "Luke",
    "9220": " nets",
    "9221": " exams",
    "9222": "otion",
    "9223": "ets",
    "9224": " drying",
    "9225": " Rebecca",
    "9226": "udy",
    "9227": "artin",
    "9228": "agine",
    "9229": " shrugs",
    "9230": " lump",
    "9231": " Auntie",
    "9232": "lest",
    "9233": " sobbing",
    "9234": " shyly",
    "9235": " shoots",
    "9236": " honks",
    "9237": " heels",
    "9238": " cheerfully",
    "9239": " Since",
    "9240": "ili",
    "9241": "hny",
    "9242": "esses",
    "9243": " shh",
    "9244": " chin",
    "9245": "anish",
    "9246": " whimpered",
    "9247": " healthier",
    "9248": " hangs",
    "9249": "icious",
    "9250": "Milo",
    "9251": " Mus",
    "9252": " caterpillars",
    "9253": "izzes",
    "9254": "Slowly",
    "9255": " squinted",
    "9256": " magnifying",
    "9257": " fries",
    "9258": " Ratty",
    "9259": " fascinating",
    "9260": " blamed",
    "9261": " Find",
    "9262": "ulpture",
    "9263": "ching",
    "9264": " sculpture",
    "9265": " frustration",
    "9266": " Tip",
    "9267": "ouched",
    "9268": " shimmering",
    "9269": " Penelope",
    "9270": " poss",
    "9271": " Peace",
    "9272": "edic",
    "9273": "Sharing",
    "9274": " suck",
    "9275": " pleas",
    "9276": " numbered",
    "9277": " nibble",
    "9278": " Waffle",
    "9279": "othy",
    "9280": "ibbles",
    "9281": "ellie",
    "9282": "amil",
    "9283": " flowing",
    "9284": " baa",
    "9285": "hings",
    "9286": "Pepper",
    "9287": " raked",
    "9288": " grumbled",
    "9289": " Off",
    "9290": "that",
    "9291": "Bubbles",
    "9292": " builder",
    "9293": "racted",
    "9294": "eat",
    "9295": " swaying",
    "9296": " petting",
    "9297": " guards",
    "9298": " facing",
    "9299": " Woolly",
    "9300": " sprinkle",
    "9301": " mysteries",
    "9302": " details",
    "9303": " Har",
    "9304": "sey",
    "9305": " snort",
    "9306": " flock",
    "9307": " enemy",
    "9308": " Boat",
    "9309": " textures",
    "9310": " tablet",
    "9311": " goodies",
    "9312": " Curious",
    "9313": " Barry",
    "9314": "Yesterday",
    "9315": " wig",
    "9316": " popping",
    "9317": " wildflowers",
    "9318": " stacks",
    "9319": " marve",
    "9320": " fans",
    "9321": " crops",
    "9322": " countries",
    "9323": " Jenn",
    "9324": " Gracie",
    "9325": "how",
    "9326": " knobs",
    "9327": " Tessa",
    "9328": " Seeing",
    "9329": " local",
    "9330": " bushy",
    "9331": " stew",
    "9332": " peeped",
    "9333": " hunting",
    "9334": " drowned",
    "9335": " bowing",
    "9336": " binoculars",
    "9337": " angrier",
    "9338": " Bubu",
    "9339": " maps",
    "9340": " Match",
    "9341": " quizzes",
    "9342": " niece",
    "9343": " moonlight",
    "9344": " Glow",
    "9345": " outfits",
    "9346": " Johnson",
    "9347": " Deal",
    "9348": "OO",
    "9349": " whoosh",
    "9350": " weaker",
    "9351": " wrench",
    "9352": " mindful",
    "9353": " crowded",
    "9354": "cycles",
    "9355": "Squ",
    "9356": " endings",
    "9357": " Beef",
    "9358": "oll",
    "9359": "Im",
    "9360": " property",
    "9361": " hesitation",
    "9362": " flashes",
    "9363": "amiliar",
    "9364": " unless",
    "9365": " imaginations",
    "9366": " fond",
    "9367": " carts",
    "9368": " boil",
    "9369": " ability",
    "9370": " Oxy",
    "9371": " Andrew",
    "9372": "getic",
    "9373": " glared",
    "9374": " Right",
    "9375": " Accidents",
    "9376": "stand",
    "9377": " unfamiliar",
    "9378": " spaces",
    "9379": " microw",
    "9380": " knit",
    "9381": " haven",
    "9382": " folds",
    "9383": "ths",
    "9384": "saw",
    "9385": "Tuna",
    "9386": " responsibility",
    "9387": " dirtier",
    "9388": " Pet",
    "9389": "bank",
    "9390": " pouch",
    "9391": " microwave",
    "9392": " desks",
    "9393": "ibly",
    "9394": "Bless",
    "9395": " cracker",
    "9396": "rnie",
    "9397": " swapped",
    "9398": " member",
    "9399": " date",
    "9400": " aston",
    "9401": " Oxygen",
    "9402": " Ring",
    "9403": " Ravi",
    "9404": "lt",
    "9405": "free",
    "9406": "Want",
    "9407": "Cra",
    "9408": " whine",
    "9409": " softened",
    "9410": " rebu",
    "9411": " doorstep",
    "9412": " disappearing",
    "9413": " Peggy",
    "9414": " Helen",
    "9415": " Bun",
    "9416": " quacks",
    "9417": " natur",
    "9418": " Chip",
    "9419": "scar",
    "9420": " writer",
    "9421": " listener",
    "9422": " Too",
    "9423": " Fix",
[...]
